node {
  name: "global_step/Initializer/zeros"
  op: "Const"
  attr {
    key: "_class"
    value {
      list {
        s: "loc:@global_step"
      }
    }
  }
  attr {
    key: "_output_shapes"
    value {
      list {
        shape {
        }
      }
    }
  }
  attr {
    key: "dtype"
    value {
      type: DT_INT64
    }
  }
  attr {
    key: "value"
    value {
      tensor {
        dtype: DT_INT64
        tensor_shape {
        }
        int64_val: 0
      }
    }
  }
}
node {
  name: "global_step"
  op: "VarHandleOp"
  attr {
    key: "_class"
    value {
      list {
        s: "loc:@global_step"
      }
    }
  }
  attr {
    key: "_output_shapes"
    value {
      list {
        shape {
        }
      }
    }
  }
  attr {
    key: "container"
    value {
      s: ""
    }
  }
  attr {
    key: "dtype"
    value {
      type: DT_INT64
    }
  }
  attr {
    key: "shape"
    value {
      shape {
      }
    }
  }
  attr {
    key: "shared_name"
    value {
      s: "global_step"
    }
  }
}
node {
  name: "global_step/IsInitialized/VarIsInitializedOp"
  op: "VarIsInitializedOp"
  input: "global_step"
  attr {
    key: "_output_shapes"
    value {
      list {
        shape {
        }
      }
    }
  }
}
node {
  name: "global_step/Assign"
  op: "AssignVariableOp"
  input: "global_step"
  input: "global_step/Initializer/zeros"
  attr {
    key: "dtype"
    value {
      type: DT_INT64
    }
  }
}
node {
  name: "global_step/Read/ReadVariableOp"
  op: "ReadVariableOp"
  input: "global_step"
  attr {
    key: "_output_shapes"
    value {
      list {
        shape {
        }
      }
    }
  }
  attr {
    key: "dtype"
    value {
      type: DT_INT64
    }
  }
}
node {
  name: "global_step/VarIsInitializedOp"
  op: "VarIsInitializedOp"
  input: "global_step"
  attr {
    key: "_output_shapes"
    value {
      list {
        shape {
        }
      }
    }
  }
}
node {
  name: "global_step/cond"
  op: "If"
  input: "global_step/VarIsInitializedOp"
  input: "global_step"
  input: "global_step/Initializer/zeros"
  attr {
    key: "Tcond"
    value {
      type: DT_BOOL
    }
  }
  attr {
    key: "Tin"
    value {
      list {
        type: DT_RESOURCE
        type: DT_INT64
      }
    }
  }
  attr {
    key: "Tout"
    value {
      list {
        type: DT_INT64
      }
    }
  }
  attr {
    key: "_lower_using_switch_merge"
    value {
      b: true
    }
  }
  attr {
    key: "_output_shapes"
    value {
      list {
        shape {
        }
      }
    }
  }
  attr {
    key: "else_branch"
    value {
      func {
        name: "global_step_cond_false_7"
      }
    }
  }
  attr {
    key: "output_shapes"
    value {
      list {
        shape {
        }
      }
    }
  }
  attr {
    key: "then_branch"
    value {
      func {
        name: "global_step_cond_true_6"
      }
    }
  }
}
node {
  name: "global_step/cond/Identity"
  op: "Identity"
  input: "global_step/cond"
  attr {
    key: "T"
    value {
      type: DT_INT64
    }
  }
  attr {
    key: "_output_shapes"
    value {
      list {
        shape {
        }
      }
    }
  }
}
node {
  name: "global_step/add/y"
  op: "Const"
  attr {
    key: "_output_shapes"
    value {
      list {
        shape {
        }
      }
    }
  }
  attr {
    key: "dtype"
    value {
      type: DT_INT64
    }
  }
  attr {
    key: "value"
    value {
      tensor {
        dtype: DT_INT64
        tensor_shape {
        }
        int64_val: 0
      }
    }
  }
}
node {
  name: "global_step/add"
  op: "AddV2"
  input: "global_step/cond/Identity"
  input: "global_step/add/y"
  attr {
    key: "T"
    value {
      type: DT_INT64
    }
  }
  attr {
    key: "_output_shapes"
    value {
      list {
        shape {
        }
      }
    }
  }
}
node {
  name: "normalize_element/component_0"
  op: "Const"
  device: "/device:CPU:0"
  attr {
    key: "_output_shapes"
    value {
      list {
        shape {
          dim {
            size: 7333
          }
        }
      }
    }
  }
  attr {
    key: "dtype"
    value {
      type: DT_DOUBLE
    }
  }
  attr {
    key: "value"
    value {
      tensor {
        dtype: DT_DOUBLE
        tensor_shape {
          dim {
            size: 7333
          }
        }
        tensor_content: "\000\000\000\300\336{R\300\222$\010W@~R\300\000\000\000\240QtR\300\262\017\262,\230}R\300\021\001\207P\245~R\300\314\005.\2175|R\300\365\363\246\"\025}R\300@\331\224+\274uR\300o\332\214\323\020~R\300\223\376^\n\017\200R\300\024\263^\014\345\200R\300*\000\3063h}R\300\252\326\302,\264\200R\300hur\206\342~R\300t\t\207\336\342\200R\300\000\000\000\240\202\177R\300ML\027b\365\177R\300d\tkc\354}R\300\000\000\000\200v\177R\300\2178d\003\351~R\300\256\022,\016g~R\300\370\377q\302\204|R\300\351}\343k\317}R\300L\340\326\335<\200R\300\026\276\276\326\245}R\300\244\252\t\242\356}R\300\271\031n\300\347|R\300\'\024\"\340\020}R\300F\324D\237\217~R\300\037\203\025\247Z\177R\300Vg\265\300\036\177R\300\327\210`\034\\\200R\300$(~\214\271~R\300\000\000\000\300\200\177R\300\307\205\003!Y\177R\300\234.\213\211\315\200R\300\000\000\000\200\246~R\300\357\254\335v\241\177R\300O\000\305\310\222}R\300!\262H\023\357}R\300\340\022\200\177J\177R\300\322\341!\214\237~R\300\010\2613\205\316~R\300\200H\277}\035\200R\3002#\274=\010\177R\300g\014s\2026\200R\300\347\301\335Y\273~R\300\360\244\205\313*~R\300z1\224\023\355~R\300|*\247=%\200R\300\376\227k\321\002\200R\300\377\311\337\275\243\177R\300\261\210a\2071~R\300\000\000\000\000\020\177R\300\351FXT\304~R\300\000\000\000\2409\177R\300J]2\216\221}R\300B\262\200\t\334~R\300\340\202lY\276wR\300\274\254\211\005\276\177R\300\000\000\000\340\355~R\300=\n\327\243p~R\300\033e\375fb\177R\300\000\000\000\340\315}R\300\001\030\317\240\241\200R\300\302\204\321\254l\200R\300\331\221\352;\277~R\300\336q\212\216\344\177R\300-\tPS\313~R\300\257\261KTo~R\300\021\252\324\354\201\177R\300\345\233mnL~R\300\021\030\353\033\230~R\300\001\331\353\335\037~R\300\373\2269]\026\177R\300\020 C\307\016\200R\300\301\035\250S\036wR\300\351\016bg\n\200R\300\000\345\357\336Q~R\300i\341\262\n\233\177R\300\234\207\023\230N{R\300z\343\2440\357\177R\300\357=\\r\334|R\300\245\241F!\311\177R\300a\336\343L\023{R\300}#\272g]\177R\300,e\031\342X{R\300\037\275\341>r\177R\300\214\235\360\022\234~R\300\016-\262\235\357\177R\300HnM\272-\177R\300\352\223\334a\023}R\300){K9_\177R\300=Fy\346\345~R\300\305\311\375\016E}R\300\270=Ab\273\200R\300\361\016\360\244\205\200R\3005\nIf\365\200R\300w\365*2:\177R\300\336Vzm6\177R\300_\017&\305\307~R\300\367vKr\300\177R\300\324\363n,(}R\300\000\000\000\240\316zR\300E\362\225@J~R\300\016/\210HMzR\300p\226\222\345$\177R\300\206U\274\221y\200R\300)\007\263\t0\177R\300\234mnLO\200R\300\000\000\000`i~R\300\257\224e\210c\177R\300\305\307\'d\347yR\300\000\000\000\200<\177R\300?\311\0356\221\177R\300\316\305\337\366\004}R\300\031rl=C\177R\300\365\274\033\013\n~R\300]lZ)\004}R\300\0263\302\333\203\200R\300)\263A&\031|R\300\000\000\000\200<~R\300\344\024\035\311\345~R\300\250\344\234\330C\177R\300\3749\005\371\331\177R\300\246\010pz\027}R\300\331\261\021\210\327}R\3007T\214\3637\177R\300\376b\266dU\200R\3000\266\020\344\240\177R\300\313\234.\213\211}R\300d\006*\343\337~R\300}^\361\324#\201R\300\022i\033\177\242\200R\300\265\303_\2235wR\3006\037\327\206\212\200R\300c\325 \314\355}R\300\211\356Y\327h{R\300V\367\310\346\252~R\300^\200}t\352\177R\300\237\221\010\215`\177R\300?\373\221\"2\177R\300\346\007\256\362\004\200R\300o\206\033\360\371~R\300!\\\001\205z|R\300\372C3O\256\177R\300\264\342\033\n\237|R\300\000\000\000\300&\177R\300\331\315\214~4~R\300\225e\210c]\200R\300R\272\364/I\177R\300h\231E(\266~R\300\037\332\307\n~wR\300+O \354\024}R\300\243\257 \315XzR\300j\023\'\367;}R\300\265l\255/\022\201R\300[\263\225\227\374}R\3008\244Q\201\223\177R\300?\303\2335x~R\300ZM\327\023]~R\300\r\214\274\254\211~R\300\000\000\000 z}R\300\313\020\307\272\270|R\300JA\267\2274\200R\300\036\245\022\236\320\177R\300>w\202\375\327}R\300\256~l\222\037\177R\300bi\340G5\200R\300\230\243\307\357m\177R\300\001n\026/\026}R\300\321W\220f,}R\300\004\347\214(\355\200R\300vMHk\014~R\300K>v\027(\200R\300\316\210\322\336\340\177R\300\314w\360\023\007\177R\3004\364Op\261~R\300\256\325\036\366B~R\300\303,\264s\232~R\300z1\224\023\355}R\300s\20269|}R\300\245\302\330B\220\177R\300\000\000\000 \023\177R\300\332\035R\014\220~R\300y=\230\024\037\177R\300\212WY\333\024}R\300[\313d8\236\177R\300t\016\236\tM\177R\300A\361c\314]\177R\300\314\264\375++~R\300\3711\346\256%rR\300&\033\017\266\330wR\300G\351\322\277$\177R\300%\221}\220e\200R\300\331&\025\215\265~R\300$\263z\207\333zR\300\230\276\327\020\034\177R\300\256c\\qq\177R\300\345b\014\254\343}R\300\311\347\025O=\200R\300\014\034\320\322\025\200R\300\\\3433\331?}R\300\213j\021QL\200R\300v\027()\260\177R\300\'\364\372\223\370\200R\300Z\273\355Bs\200R\300\r\340-\220\240~R\300\333\376\225\225&wR\300\325\217M\362#}R\300\000\000\000 \213~R\300\336\001\236\264p\177R\300\333\207\274\345\352\177R\3004\024w\274\311\200R\300\245\026J&\247~R\300\256\274\344\177\362~R\300D\025\376\014o\177R\300\347\376\352q\337~R\300\276\373\343\275j\177R\300=\201\260S\254{R\300\272\022\201\352\037\200R\300\335A\354L\241~R\300\000\000\000\300:}R\300.q\344\201\310}R\300\030\317\240\241\177}R\300\222\"2\254\342~R\300\200\013\262e\371\200R\300)u\3118F\177R\300B\352v\366\225\177R\300vl\004\342u~R\300y \262H\023~R\300-\323/\021o~R\300\362\"\023\360k\177R\300q\346Ws\200~R\300r\373\345\223\025~R\300\371\371\357\301k}R\300\231\360K\375\274}R\300\212\032L\303\360\177R\300\320\315\376@\271\177R\300K\222\347\372>\177R\300RI\235\200&~R\300i\215A\'\204}R\300\177\303D\203\024\200R\300\017H\302\276\235zR\300\177\205\314\225A\177R\300kc\354\204\227~R\300\217\210)\221D}R\300\223\035\033\201x\177R\300\202;P\247<}R\300\211\315\307\265\241}R\300H\334c\351C\200R\300\005MK\254\214\177R\300\200\321\345\315\341|R\300\270XQ\203i\177R\300q\221{\272\272~R\300\315\001\2029z\177R\300)\352\314=$\200R\300M\301\032g\323~R\300vMHk\014\177R\300\350g\352u\213\200R\300w\331\257;\335\177R\300\245\334}\216\217rR\300scz\302\022\201R\300JD\370\027A\200R\3009EGr\371|R\300D4\272\203\330}R\300\000\000\000\240\307}R\300\335\260mQf\200R\3004\242\2647\370~R\300\006\201\225C\213|R\300\363\255\017\353\215~R\300\244\304\256\355\355~R\300\324c[\006\234~R\300)^emS\177R\300\234\030\222\223\211\177R\300\356ZB>\350\177R\300al!\310A~R\300\253>W[\261|R\300\022\021\376E\320\200R\300*\035\254\377s\177R\300\244m\374\211\312~R\300l\004\342u\375~R\300\366A\226\005\023}R\300[\316\245\270\252~R\300\266+\364\3012}R\300\266\273\007\350\276yR\300\314\3574\231\361~R\300y[\351\265\331~R\300\341z\024\256G}R\300\325#\rnk~R\300\005k\234MG\177R\300>\261N\225\357\177R\300\305\3427\205\225rR\300\r\375\023\\\254\200R\300\000\000\000\240\232\200R\3008\023\323\205X~R\300\020\036m\034\261wR\300{i\212\000\247\177R\300\377\354G\212\310}R\300\020\353\215Za~R\300\277\357\337\2748\177R\300\031\312\211v\025\177R\300\215\t1\227T}R\300\334\356\345>9\200R\300\000\000\000\340\234~R\300S\316\027{/}R\300-y<-?|R\300L\213\372$w\200R\300\310\005g\360\367\200R\300\256\271\243\377\345|R\300-\316\030\346\004~R\300\000\000\000`\374\200R\300\021\311\220c\353\200R\300A,\2339$wR\300cz\302\022\017\177R\300D\337\335\312\022\177R\300\036o\362[tzR\3009\231\270U\020\177R\300\320%\034z\213\177R\300\202n/i\214\200R\300\274\310\004\374\032\177R\300\373WV\232\224~R\300c\267\317*3\200R\300\000:\314\227\027\177R\300\"\305\000\211&\200R\300\330d\215z\210\177R\300T\343\245\233\304~R\300P4\017`\221~R\300\354\277\316M\233\200R\300\000\000\000\200]{R\300Bz\212\034\"\200R\300\000\000\000\240\035~R\300\244T\302\023z}R\300\000\035\346\313\013\201R\300\320\325V\354/\200R\300\320{c\010\000\200R\300\021\251i\027\323\177R\300\200\'-\\V~R\300\000\000\000\2002\177R\300\223\253X\374\246}R\300K:\312\301l\200R\300\232\3534\322R}R\300\312\301l\002\014\177R\300\336\215\005\205AvR\300Z\326\375c!wR\300P\302L\333\277~R\300\201@g\322\246\177R\300M\241\363\032\273|R\300\245\367\215\257=~R\300\360M\323g\007~R\300\242\010\251\333\331~R\300(\356x\223\337~R\300\260\313\360\237n\177R\300\242&\372|\224~R\300\000\000\000 \273\177R\300\030\230\025\212t~R\300[\325\222\216r\177R\300\000\000\000 \306~R\300\214\205!r\372\177R\300\037\023)\315\346~R\300\321u\341\007\347~R\300\216uq\033\r\177R\300\346\346\033\321=~R\300*\344J=\013|R\300\250\337\205\255\331~R\300a\000\341C\211\177R\300\324\234\274\310\004\177R\300\325\317\233\212T~R\300\332\031\246\266\324\177R\300/R(\013_|R\300\242_[?\375}R\300\343\033\n\237\255}R\300nnLOX|R\300\244SW>\313~R\300\000\000\000\000\221}R\300\256~l\222\037}R\300\351\'\234\335Z\200R\300H3\026Mg}R\300\026\244\031\213\246~R\300\323\331\311\340({R\300\000\000\000\300\360}R\300R\021\247\223l|R\300uv28J\177R\300F?\032N\231\177R\300k\361)\000\306\177R\300\343\337g\\8\177R\300\362<\270;k\200R\300\305:U\276g\177R\300\322\375\234\202\374\177R\300\317\021\371.\245~R\300m\216s\233p~R\300_c\227\250\336~R\300\207\337M\267\354|R\300\000\000\000\240&\177R\300\022\213\030v\030~R\300\323Mb\020X}R\300\215\227n\022\203\200R\300\215\231D\275\340|R\300\254Q\017\321\350~R\300l\262F=D\177R\300\237\317\200z3~R\300_c\227\250\336~R\300e\373\220\267\\}R\300l\265\207\275P}R\300w\330Df.wR\300\345\272)\345\265~R\300l\222\037\361+\200R\300\345&jin\200R\300nk\013\317K~R\300k\363\377\252#wR\300\344\334&\334+\200R\300\000\000\000\000\361~R\300\021\374o%;~R\300\344\332P1\316}R\300\210ht\007\261|R\300\262\024\311W\002~R\300\245\270\252\354\273\200R\300b*\375\204\263}R\300\325\223\371G\337~R\300\000\000\000 6~R\300\311t\350\364\274~R\300\303\330B\220\203\200R\300\"\305\000\211&\200R\3005&\304\\R\177R\300\252z\371\235&rR\300\344g#\327M\177R\300\343\345\351\\Q\200R\300k|&\373\347}R\300\362~\334~\371\177R\300=\265\372\352\252~R\300A\3639w\273}R\300\244\304\256\355\355|R\300\335\t\366_\347}R\300-\227\215\316\371}R\300=D\243;\210\177R\300\240\027\356\\\030\177R\300\205\t\243Y\331\177R\300!<\3328b\177R\300\033\265\302\364\275\177R\300h\260\251\363\250~R\300\340\360\202\210\324~R\300\013\267|$%\177R\300\305\256\355\355\226~R\300\363\342\304W;|R\300\376b\266dU\213R\300\203\302\240L\243\177R\300\334\236 \261\335|R\300]\373\002z\341|R\300_~\247\311\214\200R\300R\322\303\320\352}R\300a0\177\205\314~R\300\243\217\371\200@~R\300\000\000\000`\270~R\300;\304?l\351\177R\300/O\347\212R}R\300\2232\251\241\r~R\300\226\354\330\010\304}R\300+\202\377\255d\177R\300\020\003]\373\002\177R\3002\005k\234M\200R\300\231\275l;mvR\300\033\273D\365\326|R\300[@h=|\200R\300hur\206\342~R\300\335\264\031\247!\177R\3000\327\242\005h\200R\300?O\003\006I\177R\300\240Q\272\364/~R\300`\224\240\277\320~R\300v\307b\233T\177R\300e\341\353k]}R\300\372\231z\335\"\200R\300\301\342p\346W~R\300\203\211?\212:\177R\300\316\376@\271m\177R\300$\271\374\207\364}R\300\010\252F\257\006\200R\300\323Mb\020X\177R\300\3167\242{\326~R\300eo)\347\213\177R\300\245h\345^`~R\300=\266e\300YwR\300\246\235\232\313\r}R\300?6\311\217\370\177R\300\234\212T\030[\200R\300\334ID\370\027}R\300\261\331\221\352;~R\300e\000\250\342\306\177R\300\333\027\320\013w~R\300\'L\030\315\312}R\300\000\000\000\200\247}R\300\2343\242\2647\177R\300\373w}\346\254}R\300\371hq\3060~R\300\360K\375\274\251\200R\300\334K\032\243u\200R\300\217N]\371,~R\300.s\272,&\200R\300+4\020\313f~R\300\316\252\317\325V\200R\300@\372&M\203~R\300\214g\320\320?~R\300\000\000\000\3401{R\300\246a\370\210\230}R\300\000\000\000\340@~R\300\000\000\000\300~~R\300Y\335\3529\351|R\300\035\003\262\327\273~R\300\000\000\000\240\240~R\300%z\031\305r|R\300l\222\037\361+}R\300\203/L\246\n\177R\300\024\260\035\214\330~R\300\017H\302\276\235~R\300\230\300\255\273y\177R\300\313/\2031\"\200R\300\000\000\000\340l~R\300\277_\314\226\254\177R\300\271\3366S!|R\300\317L0\234k\177R\300\363\255\017\353\215~R\300\363W\310\\\031\201R\300\304\n\267|$\177R\300\337\032\330*\301\177R\300T\246\230\203\240\200R\300)_\320B\002\177R\300\277}\0358g\177R\300v\342r\274\002\177R\300\213S\255\205Y~R\300\327\373\215v\334|R\300\262\017\262,\230~R\300m\253Yg|~R\300\000\000\000`\327\177R\300} y\347P\200R\300\337\025\301\377V\177R\300\324\177\326\374\370~R\3005\3578EG\177R\300\016GW\351\356~R\300W\005j1x\177R\300\265Q\235\016d\177R\300\365G\030\006,|R\300%\313I(}}R\300M\020u\037\200\177R\300C\032\0258\331\200R\300@\243t\351_\177R\300y \262H\023\177R\300\002\362%Tp~R\300\013By\037G}R\300c\230\023\264\311\200R\300\021X9\264\310~R\300\261\371\2706T}R\300\251\300\3116p\177R\300j\302\366\2231}R\300\362<\270;k\177R\3004Lm\251\203}R\300\242@\237\310\223\177R\300\000\000\000\340\037\200R\300\372\014\2507\243\177R\300\001jj\331Z\200R\300\250\303\n\267|~R\300\000\000\000\000.\177R\300V\272\273\316\206\200R\300\206\307~\026K\200R\300q\037\2715\351\207R\300\216\003\257\226;\200R\3002;\213\336\251\200R\300B\346\312\240\332~R\300\264\254\373\307B\200R\300\264\003\256+f\177R\300\331\350\234\237\342\177R\300\336\310<\362\007\201R\300\212\307E\265\210}R\300o\266\2711=}R\300)v4\016\365}R\300o\325u\250\246\177R\300.s\272,&\177R\300xz\245,C\177R\300r\3679>Z\177R\300\275\336\375\361^\200R\300\346?\244\337\276qR\300\221c\353\031\302\177R\300\3642\212\345\226\177R\300\334\022\271\340\014~R\300\311\347\025O=}R\300U\366]\021\374\177R\300F\264\035Sw\200R\300x|{\327\240~R\300\263x\2610D~R\300\002\2029z\374~R\300\000\000\000\000\264\177R\300\000\000\000\300\006\177R\300\203\246%VF\177R\300\203\027}\005i~R\300Y\276.\303\177~R\300\217\247\345\007\256}R\300c\013A\016J}R\3006y\312j\272~R\300\312Li\375-~R\300\361.\027\361\235}R\300\340f\361ba\177R\300|\200\356\313\231{R\300&r\301\031\374\177R\300\343\336\374\206\211~R\300\207\245\201\037\325wR\300\267\t\367\312\274~R\300e8\236\317\200\200R\300\r\305\035o\362|R\300\365.\336\217\333|R\300t\362\"\023\360|R\300cB\314%U|R\300\331W\036\244\247\200R\300\356\321\033\356#wR\300\367\254k\264\034rR\300O\347\212RB~R\300\247\"\025\306\026~R\300\234hW!\345{R\300\264:9Cq~R\300T\035r3\334~R\300)Wx\227\213~R\300\220\364i\025\375|R\300[\010rP\302}R\300\256\360.\027\361\177R\300\210,\322\304;\177R\300\261\21272\217\200R\300\306\334\265\204|\177R\3003k) \355\200R\300\351\316\023\317\331~R\300\341\316\205\221^~R\300a\246\355_Y~R\300\016\205\317\326\301~R\300]2\216\221\354\200R\300\245\275\301\027&\177R\300<4,F]~R\300\'i\376\230\326\177R\300\031\004V\016-\177R\300;\211\010\377\"\200R\300d\006*\343\337wR\300\000\000\000\200*~R\300KTo\rl~R\300\025\037\237\220\235\177R\300\242\010\251\333\331}R\300\202\216V\265\244~R\300\263C\374\303\226\177R\300R}\347\027%\177R\300K\220\021P\341\177R\300\000\000\000\340j~R\300\372\323Fu:\200R\300\203\367U\271P\177R\300\311>\310\262`wR\300>yX\2505\177R\300\333\367\250\277^\177R\300h\005\206\254n}R\300\220,`\002\267~R\300\214/\332\343\205~R\300\316QG\307\325~R\300\327\243p=\n\200R\300\006L\340\326\335~R\300\302l\002\014\313HR\300\000\000\000@z~R\300\'\364\372\223\370~R\3008\3270C\343~R\300o\236\352\220\233~R\300\026\373\313\356\311~R\300\360\337\2748\361\177R\300\000\000\000@\324}R\300\022\300\315\342\305~R\300\032PoF\315~R\300\036P6\345\n\200R\300\311\"M\274\003wR\300\353\216\3056\251\177R\300\000\000\000 \231}R\300\230Q,\267\264\177R\300\341@H\0260\177R\300u<f\2402\177R\300\366\356\217\367\252}R\300\207\245\201\037\325\177R\300\221\357R\352\222|R\300n\207\206\305\250}R\300\002-]\3016{R\300\362\270\250\026\021\177R\300\000\000\000\240\345}R\300d\314]K\310\177R\300\335\\\374mO\200R\300\343\335\221\261\332\200R\300\231G\376`\340\177R\300y\036\334\235\265~R\300\000\000\000\300d\200R\300\245\330\3218\324}R\300\000\000\000@\357|R\300.\036\336s`zR\300\271\217\334\232t\200R\300\360\243\032\366{}R\300\252\327-\002cwR\300\000\000\000 \223}R\300\211\263\"j\242~R\300v\215\226\003=\200R\300\354\251\325WW\200R\300\006\330G\247\256~R\300\351\232\3117\333~R\300\000\000\000\340M\200R\300\000\000\000\300\263~R\300{0)>>wR\300\244\252\t\242\356~R\300v\025R~R\177R\300\324\2707\277a\177R\3005c\321tv\177R\300{e\336\252\353}R\300\024\350\023y\222\177R\300|fI\200\232~R\300\255g\010\307,\200R\300^I\362\\\337|R\300\362\354\362\255\017~R\300\271\001\237\037F\177R\300\234\336\305\373q\177R\300\003\260\001\021\342}R\300\350N\260\377:\200R\300\257\352\254\026\330~R\300L\0318\240\245|R\300)$\231\325;~R\300\000\000\000\000\255\200R\300Q\274\312\332\246\177R\300\252\361\322Mb\177R\300\310\005g\360\367~R\300\033I\202p\005\177R\300q\221{\272\272wR\300\303-\037II}R\300\377\003\254U\273~R\300OX\342\001e\200R\300\006\204\326\303\227\177R\300\365\273\2605[~R\300\301S\310\225z\177R\300\222\260o\'\021\177R\300\205\263[\313d~R\300V\364\207f\236\177R\300\335A\354L\241\200R\300\0360\017\231\362|R\300\271\302\273\\\304}R\300\354\333ID\370~R\3004*p\262\r\177R\300\224\333\366=\352~R\300\350\331\254\372\\\177R\300\322\337K\341A\200R\300O\3119\261\207\177R\300<\246\356\312.\177R\300\367\352\343\241\357}R\300\373\345\223\025\303~R\300h\314$\352\005~R\300R)v4\016\177R\3007\000\033\020!\177R\300\320*3\245\365|R\300\000\000\000`y\200R\300i7\372\230\017\177R\300\000\000\000\240d\177R\300\353\374\333e\277~R\300A\267\2274F\177R\300\006\204\326\303\227~R\300\271U\020\003]\177R\300\034\353\3426\032}R\300+\376\357\210\n\200R\300\301\312\241E\266~R\3003M\330~2\177R\300\306\026\202\034\224}R\300;\304?l\351|R\300\234hW!\345\177R\300!\004\344K\250\177R\300\202\377\255d\307\177R\300\000\000\000\000\363}R\300\201\256}\001\275~R\300.\307+\020=uR\300\0356\221\231\013}R\300\326\213\241\234hzR\300\255l\037\362\226}R\300\362\'*\033\326~R\300\000\000\000`grR\300$&\250\341[\177R\300h\"lxz\177R\300\nL\247u\033\177R\300\035\342\037\266\364\177R\300\200\r\210\020W}R\300\226\311p<\237{R\300J\007\353\377\034\177R\300\206\376\t.V~R\300[{\237\252B}R\300\373v\022\021\376|R\300|F\"4\202|R\300\206\304=\226>~R\300*<hv\335wR\300\020r\336\377\307~R\300\000\000\000@\213~R\300\274?\336\253V\200R\300\357uR_\226\200R\300t\356v\2754~R\300$+\277\014\306\177R\300\204\177\0214f~R\300\207\251-u\220|R\300\265\244\243\034\314}R\300\370\302d\252`\177R\3004\242\2647\370\200R\300\264\000m\253Y|R\300A\202\342\307\230\177R\3004K\002\324\324\177R\300\331wE\360\277~R\300\325\347j+\366~R\300\037L\212\217O\200R\300\336Vzm6\177R\300\320*3\245\365~R\300\241i\211\225\321}R\300\000\000\000`u\177R\300\225`q8\363yR\300\311\037\014<\367\177R\300\000\000\000 \t}R\300qt\225\356\256~R\300\206=\355\360\327\177R\300W\005j1x\200R\300+\364\30126\200R\300\372\225\316\207g\177R\300F?\032N\231\177R\300\376\233\027\'\276~R\300im\032\333k~R\300\271\341w\323-wR\300\006G\311\253s~R\300<I\272f\362|R\300\021\250\376A$\200R\300\027\333\244\242\261~R\3003Q\204\324\355}R\300\206\034[\317\020\177R\300\000\000\000\300a\177R\300\234\212T\030[\200R\300\205(_\320B\200R\300t\317\272F\313~R\300\366\321\251+\237\177R\300\221\007\"\2134\200R\300\303\r\370\3740\200R\300-\352\223\334a\177R\300C\307\016*q}R\300qu\000\304]\200R\300\027G\345&j\177R\300\261\331\221\352;~R\300\027\270<\326\214~R\300\223\034\260\253\311~R\300\265l\255/\022~R\300q!\217\340F\177R\300_^\200}t\177R\300\321@,\2339}R\300\303f\200\013\262~R\3002v\302Kp~R\300\325\347j+\366|R\300\313\025\336\345\"\200R\300\372a\204\360h~R\300\307\202\302\240L}R\300\274!\215\n\234|R\300\263\352s\265\025\177R\300\372\016~\342\000\177R\300\020\010t&m\177R\300\236)t^c\177R\300\265\367\251*4sR\300\343\371\014\2507pR\300\177\301n\330\266\200R\300#\276\023\263^~R\300&\254\215\261\023\177R\300\262\366w\266G}R\300\202\306L\242^~R\300\334\200\317\017#\202R\300\237\007wg\355}R\300\3374}v\300~R\300VK:\312\301~R\300\000\000\000\200\245~R\300\377\262{\362\260~R\300#0\32670~R\3008gDio|R\3004F\353\250j~R\300^\275\212\214\016\177R\300\367 \004\344K}R\300\337\250\025\246\357~R\300\000\000\000 \213}R\300\232\357\340\'\016~R\300\005S\315\254\245~R\300\241\020\001\207P\177R\300\023\355*\244\374\200R\300|\355\231%\001~R\300\000\000\000 \203{R\300\375\204\263[\313}R\300q\345\354\235\321~R\300YNB\351\013}R\300H\244m\374\211~R\300\361J\222\347\372\200R\300J\323\240h\036\177R\300\332s\231\232\004}R\300^\243\345@\017\177R\300c\177\331=y\200R\300\300@\020 C~R\300X:\037\236%\177R\300\240\213\206\214G\177R\300\254\245\200\264\377~R\300o\362[t\262}R\300e\031\342X\027~R\300\373\223\370\334\t\177R\300\000\000\000\240\323~R\300\034DkE\233~R\300\ne\341\353k\177R\300\000\000\000\300+}R\300(|\266\016\016~R\300\200\361\014\032\372~R\300\000\000\000\340\225\200R\300z\252Cn\206}R\3004\0216<\275}R\300a\244\027\265\373~R\300\216\3473\240\336}R\300\315Z\nH\373}R\300\330g\316\372\224\200R\300yV\322\212o\177R\300\356DIH\244|R\300\332\254\372\\m~R\300q\261\242\006\323\177R\300\350ME*\214\177R\300u\310\315p\003~R\300xcAaP\200R\300zpw\326n~R\300\242@\237\310\223~R\300\276\017\007\tQ|R\300v\377X\210\016zR\300\352{\r\301q~R\300\252ED1y|R\300\322\032\203N\010|R\300@\277\357\337\274~R\300\332\000l@\204\200R\300\000\000\000\200\270}R\300od\036\371\203\200R\300: \t\373v}R\300\205?\303\2335\177R\300\325\265\366>U\200R\300\000\000\000\300B}R\300\234\333\204{e\200R\300<-?p\225~R\300\371f\233\033\323~R\300=\201\260S\254|R\300\03275\320|~R\300\036\373Y,E\177R\300\000\000\000 \211\177R\3004\242\2647\370}R\300s\364\370\275M\177R\3009\232#+\277}R\300?\003\352\315\250~R\300\307\267w\r\372\177R\300m\2132\033d\177R\300\000\000\000\200\251~R\300\274\226\220\017z~R\300\371\243\2503\367~R\300\252\022eo)}R\300\211\322\336\340\013\177R\300*\310\317F\256\177R\300\372\355\353\3009\177R\300\334c\351C\027\200R\300a\030\260\344*~R\300\327\202\336\033C\200R\300\254\345\316L0\177R\300\352>\000\251M~R\300\361+\326p\221\200R\300\221\007\"\2134{R\300\301X\337\300\344}R\300`\0362\345C\177R\300s\206\342\2167}R\300\226>tA}\177R\300O\351`\375\237~R\300\222\320\226s)~R\300\215\231D\275\340}R\300\000\000\000\000p~R\300\000\000\000\300\020\177R\30067\246\',\177R\300n\367r\237\034~R\300\017a\3744\356\177R\300\310A\t3m\200R\300&\3062\375\022\177R\300\353\307&\371\021\177R\300|\325\312\204_\200R\300\000\000\000 \255~R\300\000\000\000\200\302\200R\300\020\322S\344\020\177R\300\313*l\006\270xR\300\334\017x`\000\177R\300\005\215\231D\275}R\300\271\215\006\360\026\200R\300\363Y\236\007w\177R\300\344\334&\334+}R\300o\020\255\025m\200R\300 )\"\303*\177R\300\254;\026\333\244\200R\300\305;\300\223\026~R\300Rd\255\241\324wR\300-x\321W\220~R\300v\001/3l|R\300\305rK\253!\177R\3007\303\r\370\374~R\300\241\244\300\002\230~R\300\027\277)\254T}R\300\005\302N\261j\177R\300u\347\211\347l|R\300\366A\226\005\023\201R\300\272\021\026\025q~R\300\337\246?\373\221}R\300\274\005\022\024?\177R\300n\301R]\300~R\300\234\304 \260r|R\300\343\033\n\237\255~R\300y\313\325\217M\177R\300\215\266*\211\354|R\300\313\330\320\315\376\177R\300\023\233\217kC}R\300\000\000\000\240\357zR\3001\'h\223\303\177R\300r\205w\271\210\177R\300\316S\035r3~R\300\354S\216\311\342|R\300\203\332o\355D}R\300\206\217\210)\221\200R\300\021n2\252\014\200R\300\200bd\311\034\200R\300\036\247\350H.\200R\300\304\354e\333i~R\300X\222<\327\367}R\300Z\364N\005\334~R\300r\373\345\223\025{R\300%[]N\t~R\300\000\000\000\340\016\177R\300C\3475v\211}R\300\322\303\320\352\344\200R\300j,am\214}R\300\360\247\306K7\177R\300-\314B;\247\177R\300\000\000\000\200\010\177R\300:\261\207\366\261~R\300\346\350\361{\233}R\300z\376\264Q\235~R\300\001\302\207\022-\200R\300\2175#\203\334\177R\300\030\007\227\2169\177R\300\241\017\226\261\241\177R\300Z\273\355Bs~R\300\024\256G\341z\177R\300\17731]\210\177R\300\214\237\306\275\371~R\300\373\320\005\365-\177R\300\220\027\322\341!~R\3006\007\010\346\350|R\300\000\000\000\340\246}R\300\000\000\000\300\243\177R\300l\265\207\275P\200R\300\370m\210\361\232}R\300\277%\000\377\224\177R\300A.q\344\201~R\300t\n\362\263\221~R\300z\033\233\035\251\177R\300\tq\345\354\235\177R\300\203m\304\223\335~R\300v\367\000\335\227~R\300uV\013\3541\177R\300\000\000\000\340L\200R\300\330(\3537\023\177R\300\343\277@\020 \177R\300\000\000\000 \013\200R\300\340\364.\336\217\177R\300\\\251gA(\177R\300p\"\372\265\365~R\300\214\331\222U\021~R\300\000\000\000@\026\177R\300#/kb\201}R\300\303*\336\310<\177R\300\016\024x\'\237\200R\300\301\002\2302p\177R\3007\213\027\013C~R\300c\266dU\204~R\300\274\312\332\246x}R\300y>\003\352\315}R\300Yh\3474\013\177R\300\036\374\304\001\364~R\300\366`R||\177R\300\237\223\3367\276}R\300\200\240\334\266\357zR\300\265q\304Z|\177R\3007T\214\3637\177R\300\234hW!\345|R\300rm\250\030\347|R\300\'6\037\327\206}R\300\273~\301n\330~R\300q\225\'\020v\177R\300\264\311\341\223N\177R\300\004\312\246\\\341~R\300-\255\206\304=~R\300\317k\354\022\325|R\300\270$\007\354j~R\300\037\234O\035\253}R\300\022\240\246\226\255~R\300\354\210C6\220\200R\300)A\177\241G~R\300Z\2341\314\t\177R\300\022\335\263\256\321~R\300\334\270\305\374\334~R\300\023\t\246\232Y~R\300\363\255\017\353\215\200R\300\233\254Q\017\321}R\300^\274\037\267_~R\300q\305\305Q\271|R\300\204\204(_\320\177R\300l\354\022\325[\177R\300\356\002%\005\026\177R\300a\335xwd~R\300\007@\334\325\253\177R\300/\212\036\370\030~R\300\3539\351}\343}R\300m\034\261\026\237~R\300\3016\342\311n~R\300\034\315\221\225_\177R\300\326\002{L\244\177R\300JC\215B\222~R\300L\030\315\312\366\200R\300\320\261\203J\\wR\300\033\243uT5\200R\300\250\000\030\317\240\200R\300\262\332\374\277\352\177R\300\214i\246{\235~R\300s\235FZ*\177R\300\365\333\327\201s~R\300q\3060\'h\177R\300\330~2\306\207}R\3005\320|\316\335\200R\300t\362\"\023\360|R\300\304\313\323\271\242rR\3005\226\2606\306\177R\300\000\000\000\200\354\200R\300\014\313\237o\013~R\300\275\305\303{\016\177R\300\"\246D\022\275~R\300\314\227\027`\037mR\300.\031\307H\366~R\300a\335xwd\177R\300\250\032\275\032\240~R\300\t\374\341\347\277}R\300E\202\251f\326{R\3002\036\245\022\236\200R\300\355\020\377\260\245~R\300\'\330\177\235\233~R\300r\207Md\346\177R\300\277\270T\245-~R\300pZ\360\242\257~R\300XV\232\224\202}R\300\237;\301\376\353~R\300\000\000\000`\214\177R\300\001R\2338\271\177R\3004\332\252$\262{R\300\357\254\335v\241\200R\300\334j\326\031\337\177R\300\363\2539@0\177R\300@-\006\017\323~R\300\203\276\364\366\347|R\300y!\035\036\302}R\300\235\234\241\270\343}R\300O>=\266e~R\300\267\326\027\tm\177R\300[@h=|\177R\300\000\000\000\240W\177R\300\3376S!\036\177R\300I\021\031V\361}R\300\227o}Xo\177R\300.\254\033\357\216\177R\300\326\303\227\211\"\177R\300\304\257X\303E~R\300\314\231\355\n}~R\3004/\207\335w~R\300\222W\347\030\220~R\300\327\241\232\222\254~R\300\361\177GT\250\177R\300\370n\363\306I~R\300\335\355zi\212~R\300t\352\312gy~R\300\005N\266\201;\177R\300\023\364\027z\304\177R\300?\027\r\031\217~R\300x\177\274W\255\177R\3005\177Lk\323\177R\300\364\305\336\213/\177R\300CT\341\317\360\177R\300\336\315S\035r~R\300\365G\030\006,\177R\300\022\243\347\026\272}R\300\343\307\230\273\226|R\3001\264:9C~R\300\312\300\001-]\177R\300\177Q\202\376B\177R\300\325v\023|\323~R\300\265\213i\246{\177R\300p\353n\236\352\200R\300\304^(`;}R\300\370P\242%\217~R\300\0358gDi\200R\300J\3225\223o~R\300b\016\202\216V\177R\300b\326\213\241\234~R\300\362\'*\033\326zR\300\000\000\000\240\355~R\300\017C\253\2233}R\300\002I\330\267\223\200R\300T<.\252E\200R\300`\002\267\356\346}R\300\201\007\006\020>\200R\300\270\220Gp#|R\300\031\344.\302\024\200R\300\"o\271\372\261|R\300\274\"\370\337J~R\300\032\373\222\215\007}R\300gG\252\357\374~R\300HS=\231\177|R\300/py\254\031\201R\300\000\000\000\000\222}R\300>\260\343\277@\177R\300\203\365\177\016\363~R\300a\244\027\265\373|R\300\3233\275\304X\177R\300|\330\013\005l~R\300\314\263\222V|\177R\300\313\273\352\001\363~R\300\263\357\212\340\177|R\300} y\347P~R\300d\227\250\336\032\200R\300\347Ws\200`}R\300\000\000\000\240\201\177R\300\362`\213\335>\200R\3004\026Mg\'\177R\300\'\236\263\005\204\177R\300\241\201X6s\177R\300\360N>=\266~R\300% &\341B\177R\300b\326\213\241\234|R\300\266\365\323\177\326\177R\300L2r\026\366~R\300\242\271N#-}R\300d<J%<}R\300\320\261\203J\\yR\300\032\337\027\227\252~R\300E\361*k\233|R\300u=\321u\341}R\300\321\2232\251\241~R\300\367\222\306h\035|R\300\230\333\275\334\'\177R\300\331y\033\233\035\200R\300]R\265\335\004\200R\300R\362\352\034\003\177R\300Ac&Q/\177R\300\000\000\000\000z\177R\300M\027b\365G|R\300$\225)\346 \177R\300\212\256\013?8\200R\300\'\212\220\272\235\177R\300\342].\342;\177R\300\206=\355\360\327zR\300\364P\333\206QtR\300\331\351\007u\221}R\300\221\232v1\315\177R\300\327\250\207ht~R\300r\302\204\321\254~R\300\242\265\242\315q\177R\300\'\300\260\374\371|R\300D7\373\003\345~R\300\217\026g\014s|R\300Kvl\004\342|R\300\247<\272\021\026}R\300\214\271k\t\371\177R\300h\226\004\250\251\200R\300\362\355]\203\276~R\300\260[\004\306\372~R\300n\030\005\301\343wR\300x\014\217\375,\177R\300\334\016\r\213Q\200R\300k\ndv\026}R\300\276\247r\332S}R\300qw\326n\273~R\300\335\\\374mOwR\300%u\002\232\010~R\300\032\213\246\263\223}R\300\377\006\355\325\307~R\300\305\"\206\035\306}R\300\222\320\226s)wR\300.\305Ue\337~R\300@\241\236>\002\200R\300\205w\271\210\357~R\300\000\000\000\340\300\177R\300\206\214G\251\204\177R\300\225\232=\320\n\201R\300-\037II\017\177R\300\272\242\224\020\254~R\300\217\3056\251h~R\300\020z6\253>\200R\300\355\330\010\304\353~R\300$\013\230\300\255\177R\300\205\n\016/\210rR\300\263A&\0319~R\3001_^\200}\200R\300%\347\304\036\332~R\300\2300\232\225\355~R\300\214J\352\0044~R\300\237\036\3332\340~R\300\300D\274u\376\177R\3008\240\245+\330~R\300B]\244P\026\200R\300\275\214b\271\245\177R\300S=\231\177\364~R\300\316\305\337\366\004~R\300\212\250\211>\037}R\300\327\371\267\313~~R\300{\210Fw\020\177R\300;s\017\t\337~R\300\304&2s\201~R\300;Q\022\022i\177R\300\217\300\037~\376~R\300\243#\271\374\207\177R\300\305\2171w-\177R\300\274:\307\200\354~R\300\004\342u\375\202~R\300\261\205 \007%}R\300\243=^H\207\177R\300\331\224+\274\313wR\300\344\210\265\370\024\177R\300\362B:<\204~R\300\331\226\001g)\177R\300\322\377r-Z\177R\300\370\210\230\022I~R\300\265\026f\241\235\177R\300\314\264\375++\200R\300\000\000\000 \271\177R\300\203\213\0255\230|R\300]\3016\342\311|R\3008\273\265L\206|R\300\000\000\000\000\216\177R\300\000\000\000\000\033}R\300\024\n\021p\010|R\300\000\000\000\240Y~R\3000\017\231\362!~R\300\264[\313d8\177R\300\376H\021\031V\200R\300\003$\232@\021}R\300\252^~\247\311~R\300\210\364\333\327\201}R\300\000\000\000`\234\200R\300\3738\232#+\177R\300\006\021\251i\027\200R\300\323\207.\250o\200R\300\264\311\341\223N\177R\300\227\000\374S\252\177R\300\243;\210\235)\200R\300\000\000\000 %wR\300\213n\275\246\007\177R\300\005\374\032I\202yR\300\200\326\374\370K\200R\300\243\263\314\"\024~R\300\000\000\000\300TwR\3009\271\337\241(~R\300\205y\2173M\177R\300\034_{fI~R\300\003\"\304\225\263{R\300\005/\372\n\322~R\300\334h\000o\201|R\300\t\305V\320\264\177R\300\036\302\370i\334~R\300\000\000\000 \224\177R\300\211^F\261\334}R\300\201X6sH\177R\300rn\023\356\225\177R\300\'\367;\024\005}R\300\0214f\022\365\177R\300W?6\311\217xR\300Z*oG8}R\300\023\364\027z\304~R\300X\004\377[\311~R\300=\017\356\316\332\177R\300\000\000\000\000&}R\300\177\023\n\021p\177R\300\302\206\247W\312}R\300\000\000\000\000#\177R\300F\314\354\363\030\200R\300 \235\272\362Y}R\300J#f\366y\200R\300\234\212T\030[\200R\300\376\360\363\337\203\200R\3004\367\220\360\275~R\300\1772\306\207\331wR\300\244\305\031\303\234\177R\300\202n/i\214\177R\300&U\333M\360~R\300\022I\3642\212\177R\300>\007\226#d\177R\300\000\000\000 \333\177R\300\372\2706T\214~R\300\205\2234\177L}R\300\000\000\000 \033\177R\300\010\225\270\216q~R\300\014\225\177-\257qR\300\031\034%\257\316~R\3009\2653Lm\177R\300\363T\207\334\014~R\300\036\242\321\035\304|R\300u\257\223\372\262\177R\3009\262\362\313`\200R\300C;\247Y\240~R\3001\316\337\204B\200R\300\003\227\307\232\221}R\300\000\000\000 C}R\300KX\033c\'~R\300\272\367p\311q\177R\300\277\324\317\233\212\177R\300\000\000\000 \230\177R\300\312\305\030X\307wR\300*8\274 \"~R\300\344K\250\340\360}R\300\342r\274\002\321\177R\300\360\242\257 \315~R\300\000\000\000\240\r~R\300\027\333\244\242\261|R\300\014V\234j-\200R\300D\206U\274\221~R\300\024vQ\364\300~R\300\271\210\357\304\254~R\300@0G\217\337|R\300\305\304\346\343\332zR\300\307\267w\r\372{R\300\274\034v\3371~R\300\363:\342\220\r\200R\300~q\251J[|R\300~\251\2377\025}R\300\023\2654\267B\177R\300\250\311\214\267\225\177R\300\343\345\351\\Q\200R\300\210g\t2\002{R\300\000\000\000 |}R\300\300u\305\214\360\177R\300\234MG\0007~R\300u\312\243\033a~R\300mu9% \200R\300\223\251\202QI\177R\300\317\021\371.\245\200R\300\206:\254p\313\177R\300\243\003\222\260o\200R\300\000\000\000`\"\200R\300\305V\320\264\304\177R\300e\031\342X\027\177R\300r\373\345\223\025~R\300g|_\\\252}R\300Q\027)\224\205~R\300\001\245\241F!\177R\300B\260\252^~\177R\300>{.S\223}R\3000\325\314Z\n\177R\300\347Ws\200`\177R\300\377\223\277{G}R\3001|DL\211\177R\300\362\014\032\372\'\177R\3001\267{\271O\177R\300\375\023\\\254\250\200R\300\254\305\247\000\030|R\300\014\225\177-\257\177R\300\000\000\000 \261~R\300\305rK\253!~R\300nM\272-\221\177R\300\000\000\000`\342~R\300v\375\202\335\260\177R\300\342\220\r\244\213\177R\300\273)\345\265\022\177R\300\016ND\277\266|R\300\266\237\214\361a\200R\300\352\314=$|yR\300\371\277#*T~R\300\027\023\233\217k~R\300\023,\016g~\177R\300\221\234L\334*wR\3004\270\255-<\177R\300\000\000\000\240\373{R\300\335\264\031\247!}R\300T\002b\022.\177R\300`>Y1\\~R\300-\265\336o\264}R\300\355\272\267\"1}R\300\256\233R^+\177R\300\221a\025od~R\300`\311U,~\177R\300\246\320y\215]zR\300\t\212\037c\356|R\300m\342\344~\207\177R\300\031\307H\366\010}R\300*\213\302.\212~R\300}DL\211$}R\300\000\000\000\000\315~R\300O\010\035t\t\177R\300\022K\312\335\347~R\300\216uq\033\r\177R\300O\034@\277\357\177R\300{/\276h\217\177R\300)\323hr1|R\300\320c\224g^~R\300U\247\003YO\200R\300\257 \315X4\200R\300\221\007\"\2134\177R\300\315\217\277\264\250}R\300L\303\360\0211}R\300\000\000\000 q}R\300l\224\365\233\211\200R\300\310{\325\312\204\177R\3000\270\346\216\376}R\3007\342\311nf\177R\300\336\347\370hq\177R\300\323\336\340\013\223~R\300\362\354\362\255\017uR\300\000\000\000 L\177R\300\000\000\000\000z\177R\300\312\305\030X\307}R\300\354\331s\231\232\177R\300_}<\364\335\177R\300\243W\003\224\206~R\300:\006d\257w\177R\300\254\213\333h\000~R\300\213\213\243r\023~R\300\000\000\000\000\204~R\300\365\275\206\340\270}R\300\000\000\000\200\330}R\300?\306\334\265\204|R\300\230\250\336\032\330~R\300t\200`\216\036\177R\300n\025\304@\327~R\300(\r5\nI\177R\300\243\311\305\030X\177R\300\016\335\354\017\224}R\300\256\325\036\366B\177R\300\036\212\002}\"\177R\300\330I}Y\332~R\300o\020\255\025m\177R\300\243\004\375\205\036~R\300C\250R\263\007\177R\300\362\261\273@I~R\300\274\000\373\350\324\177R\300(eRC\033{R\300+p\262\r\334\177R\300\306\337\366\004\211rR\300\247\004\304$\\\200R\300\231\324\320\006`\177R\300\271\217\334\232t\200R\300Q\027)\224\205\200R\300\t\215`\343\372~R\300\013\232\226X\031\177R\300\000\000\000\000\267zR\300\315=$|\357\200R\300\337\342\341=\007}R\300\000\000\000\340o{R\300\000\000\000\340\266\177R\300\353\345w\232\314\177R\300\272I\014\002+\177R\3002\313\236\0046\200R\300B\t3m\377~R\300\356\010\247\005/}R\300\035s\236\261/~R\300\301\034=~o\177R\300\241\333K\032\243~R\300\330e\370O7|R\300G\0007\213\027}R\300hv\335[\221\177R\300\251\244N@\023}R\3006\222\004\341\n~R\300\006cD\242\320}R\300o\206\033\360\371~R\300\362#~\305\032}R\300q\002\323i\335yR\300g\271lt\316~R\300\376\324x\351&}R\300\252\361\322Mb}R\300\031\347oB!}R\300\352\254\026\330c}R\300\355,z\247\002\200R\300\000\000\000\000\203{R\300\312nf\364\243\200R\300\242\231\'\327\024}R\300,b\330aL\177R\300\20269|\322~R\300+Ral!~R\300t\224\203\331\004}R\300\3547\023\323\205~R\300\272\024W\225}\200R\300\334`\250\303\n\200R\300\316j\201=&~R\300\242\271N#-}R\300/py\254\031\177R\300M\276\331\346\306~R\300\302\240L\243\311|R\300a\335xwd\177R\300\360\033_{f\177R\300{\017\227\034w\177R\300\312\310Y\330\323|R\300\335_=\356[~R\3003M\330~2\177R\3002t\354\240\022\200R\300\026\303\325\001\020vR\300A.q\344\201~R\300\210L\371\020T\200R\300\260w\177\274W\177R\300B\352v\366\225}R\300X\222<\327\367~R\300\034z\213\207\367\177R\300\000\000\000@\346~R\300F#\237W<~R\300\"t\320%\034}R\300\304\n\267|$\177R\300&\254\215\261\023\177R\300Ac&Q/{R\300t\234\333\204{~R\300\350\363QF\\}R\300\tUj\366@~R\300\304\316\024:\257qR\300\311\377\344\357\336|R\300\201\264\377\001\326~R\300\360\334{\270\344\177R\300\247?\373\221\"}R\300cG\343P\277~R\300\201\010q\345\354\177R\300)A\177\241G}R\300\245\024t{I~R\300\321Z\321\3468\200R\300\336\220F\005N\177R\300[\267A\355\267~R\300\207oa\335x~R\300\341E_A\232}R\300z\031\305rK\177R\300\3125\0052;~R\300\r\214\274\254\211}R\300\201\226\256`\033\177R\300\"lxz\245~R\300\334/\237\254\030~R\3000\272\2749\\~R\3007QKs+|R\300\351\274\306.Q\200R\300\344I\3225\223\200R\300L\377\222T\246~R\300m\215\010\306\301~R\300\000\000\000@N\177R\300\354PMI\326~R\300\275\311o\321\311}R\300\236^)\313\020~R\300\376d\214\017\263\177R\300XSY\024v\177R\300\216\315\216T\337~R\300\301\253\345\316L\200R\300Kw\327\331\220\177R\300\000\000\000\240c~R\300^\274\037\267_\200R\300\\\222\003v5\200R\300<P\247<\272xR\300f\274\255\364\332\200R\300f/\333N[~R\300\253\222\310>\310\177R\300\261\026\237\002`}R\300-\265\336o\264~R\300\215\264T\336\216\177R\300\000\000\000\340C~R\300\334ID\370\027\177R\300\223lu9%\200R\3000\235\326mP\177R\300\000\000\000\200\321uR\300\235\327\330%\252~R\300\031\314_!s\177R\300(\322\375\234\202|R\300\000\000\000\2402~R\300e\215z\210F\177R\300\350\363QF\\\200R\300\356\266\013\315u\200R\300\376b\266dU\200R\300!W\352Y\020\177R\300\000\000\000\300\250~R\300?\211\317\235`\200R\300KxB\257?\200R\300\322r\240\207\332~R\3004\0216<\275wR\300d#\020\257\353\177R\300\000\000\000@\310}R\300d\311\034\313\273~R\300\014\002+\207\026zR\300\000\000\000\000\345}R\300\377\262{\362\260|R\3004\271\030\003\353}R\300S\010\344\022G~R\300hs\234\333\204\177R\300/\372\n\322\214~R\300\316T\210G\342~R\3002\346\256%\344\177R\300\271\302\273\\\304|R\300\306\375G\246C~R\300?\221\'I\327\177R\300\305\221\007\"\213\177R\300\356ZB>\350~R\300\275\250\335\257\002\177R\300k|&\373\347|R\300w+Kt\226|R\300f1\261\371\270~R\300\355+\017\322S~R\300\000\000\000\240-~R\300R\201\223m\340~R\300\304\353\372\005\273|R\300\231\203\240\243U\200R\300W!\345\'\325}R\300\t\302\025P\250\177R\300i\337\334_=~R\300\005\210\202\031StR\300\023\364\027z\304~R\300\207\215\262~3}R\300\352[\346tY\200R\300\003 \356\352U\200R\300\000\000\000\240\257qR\300\327\211\313\361\n}R\300&\341B\036\301|R\300\037\371\203\201\347\177R\300\251\026\021\305\344\177R\300^i\031\251\367|R\300\342!\214\237\306~R\300!Y\300\004n\177R\300\000\000\000 \223~R\300\210f\236\\S}R\300-\262\235\357\247\200R\300H7\302\242\"\177R\300\367w\266Go\177R\300\n\202\307\267w~R\300\244k&\337l\200R\300A\234\207\023\230\177R\300h\313\271\024W\200R\300\326<G\344\273\177R\300v\213\300X\337~R\300nN%\003@\177R\300\000\000\000\340\262\177R\300$\266\273\007\350~R\300\034$D\371\202~R\300\214\301\303\264o~R\300\177\334~\371d\200R\300\245\327fc%}R\300\226A\265\301\211\200R\3000\325\314Z\n~R\300\266\334\231\t\206\177R\300\305\221\007\"\213\177R\3000\300>:u}R\300dw\201\222\002}R\300P\305\215[\314\177R\300\263\014q\254\213}R\300\373\261I~\304\177R\3007n1?7\177R\300\357p;4,|R\300f\374\373\214\013|R\300\024^\202S\037\177R\300\201]M\236\262\177R\300\302\303\264o\356zR\300\264\256\321r\240~R\300\245\277\227\302\203\177R\300;\037\236%\310{R\300\340+\272\365\232~R\300\036\373Y,E}R\3001Bx\264q}R\300r\205w\271\210\177R\300\332\256\320\007\313}R\300f\241\235\323,\200R\300\232\"\300\351]\177R\300\233\305\213\205!~R\300\232\\\214\201u~R\300C\216\255g\010\177R\300\267\231\n\361H\200R\300\352\0044\0216\200R\300\000\000\000\340\030\177R\300\306\210D\241e\177R\300\264V\2649\316|R\300\245\327fc%wR\300\023f\332\376\225\200R\300\035\002G\002\r~R\300\366\270o\265N~R\300\341@H\0260|R\300\013\200\361\014\032~R\300\315\222\0005\265~R\300\237\377\036\274v\177R\300_\227\341?\335|R\300\"\214\237\306\275~R\300\000\000\000\340\016~R\300\005\244\375\017\260\177R\300\373Y,E\362xR\300{\022\330\234\203~R\3001@\242\t\024sR\300\316S\035r3\177R\300\266j\327\204\264}R\300\273\231\321\217\206~R\300\257\353\027\354\206\177R\300|\362\260Pk\200R\300\000\000\000\340\330|R\300/\027\361\235\230\200R\300\262e\371\272\014\201R\300VfJ\353o\177R\300\362\320w\267\262\177R\300\021\376E\320\230\200R\300\000\000\000@\013\177R\300\365\326\300V\t\177R\300<\275R\226!\177R\300~\215$A\270\177R\300H\301S\310\225|R\300\210i\337\334_|R\300\350\366\222\306h\177R\300\365\330\226\001g\200R\300\212\214\016H\302~R\300\314\226\254\212p{R\300R/\3704\'~R\300\206\316k\354\022~R\300z\252Cn\206~R\300\244\304\256\355\355\200R\300-z\247\002\356~R\300\347\033\321=\353|R\300)\311:\034]~R\300B\315\220*\212|R\300\306h\035UM~R\300vn\332\214\323\177R\300.7\030\352\260\200R\300,+MJA\177R\300\rW\007@\334~R\300]\336\034\256\325~R\300\377>\343\302\201\177R\300\347\301\335Y\273~R\300\214h;\246\356}R\300\"7\303\r\370|R\300\300?\245J\224}R\300\035\216\256\322\335~R\300h\315\217\277\264\200R\300O\350\365\'\361~R\300\000\000\000\0005\177R\300\3500_^\200\177R\300\201\354\365\356\217\177R\300\330\017\261\301\302~R\300\303\330B\220\203~R\300\001M\204\rO\177R\300\033.rOW\200R\300\000\000\000\000M\200R\300%\221}\220e~R\300K\001i\377\003~R\300\232a\243\254\337|R\300\000\000\000\000}\200R\300\302\337/fK~R\300\347\371\323Fu\177R\300\325[\003[%\177R\300\251\371*\371\330}R\300\275\305\303{\016\200R\300DR\013%\223}R\300\274\007\350\276\234\202R\300\000\000\000\200\002\177R\300Swe\027\014\200R\300wL\335\225]\177R\300\000\000\000@\014~R\300\320[<\274\347wR\300g\271lt\316rR\300~\376{\360\332~R\300\310$#ga}R\300{\235\324\227\245~R\300\353s\265\025\373|R\300\000\000\000\000~\177R\300\0359\322\031\030\200R\3001Bx\264q\200R\300\000\000\000\340\220~R\300K\223R\320\355\177R\300\302\277\010\0323\177R\300\3163\366%\033\177R\300a\030\260\344*\200R\300\2723\023\014\347~R\3003\213Pl\005\177R\300\352%\3062\375~R\300\373\037`\255\332wR\300\225+\274\313E}R\300|,}\350\202\177R\300)]\372\227\244\177R\300\217\034\351\014\214~R\300\2237\300\314w\200R\300]\337\207\203\204~R\300.\222v\243\217|R\300\351G\303)s}R\300mY\276.\303\200R\300\000\000\000\200\262~R\300\325\013>\315\311\177R\300\252h\254\375\235~R\300L\372{)<~R\300CT\341\317\360~R\300G\345&ji\177R\300zn\241+\021~R\300\354L\241\363\032\177R\300N\234\334\357P\200R\300\266\2711=a\177R\300\034B\225\232=~R\300\342\220\r\244\213~R\300\211\315\307\265\241\177R\300=~o\323\237}R\300\261\340~\300\003\177R\300\376\361^\2652~R\300F\314\354\363\030\177R\3009\264\310v\276|R\300\031\217R\tO\177R\300\026\2073\277\232\177R\300\3168\rQ\205~R\300\373\000\2446q\177R\300)\355\r\2760\177R\300|\267y\343\244~R\300\207\334\0147\340}R\3002U0*\251\177R\300f1\261\371\270\177R\300\010X\253vM{R\300|\364\206\373\310~R\300\211\322\336\340\013~R\300\361\240\331uo\177R\300\000\000\000`\326~R\3005\356\315o\230vR\300\334\276G\375\365\177R\300O\316P\334\361~R\300{g\264UI}R\300\315\311\213L\300~R\300\340/fKV~R\300\345Hg`\344~R\300\035\003\262\327\273~R\300\000\000\000\240H~R\300\035\001\334,^\177R\300\034\223\305\375G\177R\300#\241-\347R~R\300\024\310\354,z}R\300\275\253\0360\017}R\300\234\252{ds\177R\300\252H\205\261\205\200R\3005\354\367\304:~R\300UL\245\237p\200R\300\336[\221\230\240\177R\300\020\346v/\367}R\300\031T\033\234\210~R\3000\276h\217\027\177R\300\252H\205\261\205}R\300\301\341\005\021\251~R\300X\377\3470_~R\300\3433\331?O}R\300\000\000\000\240c~R\300\022\247\223lu~R\300\177g{\364\206~R\300\261\213\242\007>\177R\300j\275\337h\307\177R\300$bJ$\321wR\300\027\267\321\000\336{R\300B@\276\204\n\177R\300\022\025\252\233\213|R\300?s\326\247\034\177R\300\034#\331#\324~R\300\236_\224\240\277|R\300\242\271N#-\177R\300\000\000\000\240\014~R\300\2140E\2714\177R\300\232\010\033\236^}R\300\262\206\213\334\323~R\300\250=%\347\304~R\300A+0du\177R\300\272/g\266+~R\300\003\227\307\232\221\177R\300\253\t\242\356\003~R\300\000\000\000@\346}R\300\000\000\000`\222|R\300j3NCT\200R\300\353\377\034\346\313~R\3008\210\326\2126\177R\300^\331\005\203kwR\300\331\257;\335y~R\300D4\272\203\330\177R\300`YiR\n\177R\300\344\021\334H\331~R\30033333\177R\300 A\361c\314|R\300\'\022L5\263~R\300T\345{F\"~R\300]\276\365a\275\177R\300\352\220\233\341\006\177R\300>v\027()}R\300B\004\034B\225~R\300v\025R~R~R\300\316o\230h\220\200R\3004\023\014\347\032~R\300\003\013`\312\300\200R\300\n\274\223O\217}R\300\232\262\323\017\352|R\300\204\235b\325 \177R\300xx\317\201\345~R\300\020\264\002CV|R\300\335&\334+\363~R\300\177\303D\203\024~R\300\265\335\004\3374\177R\300a\000\341C\211~R\300\016\366&\206\344~R\300{l\313\200\263}R\300\201\220,`\002\200R\300\000\000\000\340\351~R\300\002\022M\240\210|R\300u\315\344\233m\200R\300\341\357\027\263%~R\300G8-x\321~R\300;\375\240.R}R\300}\320\263Y\365}R\300\376\3217i\032\201R\300\023\360k$\t\177R\300M\245\237pv\177R\300\264<\017\356\316|R\300\000\000\000`\310~R\300\'\370\246\351\263~R\300\3607\332q\303wR\300\000\000\000\200\200~R\300\241\016+\334\362~R\300\005\3374}v\177R\300\253\355&\370\246~R\300\000\000\000@3\200R\300\264\345\\\212\253~R\300\363r\330}\307\200R\300\225G7\302\242\177R\300\372\353\025\026\334wR\300\331]\240\244\300wR\300\372A]\244P\200R\300\341\316\205\221^\177R\300\363\216St$\177R\300\306\245*mq~R\300d\346\002\227\307~R\300\322\002\264\255f\177R\300\315\316\242w*wR\300\000\000\000\240\352~R\300\331\3218\324\357}R\300\243ZD\024\223}R\300\333\026e6\310~R\300\211\320\0106\256\200R\300(*\033\326TwR\300\342\005\021\251i}R\300i:;\031\034\177R\300\000\000\000`\264~R\300\234\034>\351D\200R\300o(|\266\016\177R\300\031\004V\016-\200R\300\321;\025p\317}R\300-z\247\002\356~R\300\377\257:r\244|R\300\263\"j\242\317~R\300\204a\300\222\253\200R\300]3\371f\233}R\300\020[z4\325\177R\300f\300YJ\226\177R\300O\3119\261\207}R\3004\210\017\354\370|R\300?\032N\231\233\201R\300C!\002\016\241\177R\300LqU\331wrR\300\024\320D\330\360~R\300\004\351b\323J~R\300\2132\033d\222|R\300&p\353n\236\200R\300ni5$\356~R\300\354\275\370\242=\200R\300\000\000\000 ;\200R\300\366B\001\333\301~R\300\007\320\357\3737xR\300\234\334\357P\024rR\300\000\000\000\340*}R\300g)YNB\177R\300r\030\314_!~R\300\301S\310\225z~R\3000\270\346\216\376\177R\300\304\353\372\005\273}R\300\323J!\220K\177R\300<\021\304y8\177R\300a\251.\340e\200R\300/\340e\206\215~R\300\000\000\000\240X\177R\300\037H\3369\224}R\300\3336\214\202\340~R\300Gt\317\272F~R\300\024[A\323\022\177R\300(~\214\271k\200R\300\033\327\277\3533\177R\300\231\322\372[\002\201R\300BDj\332\305~R\300%^\236\316\025\200R\300\252.\340e\206\177R\300\262\327\273?\336\177R\300\314w\360\023\007\177R\300s\276\330{\361}R\300T\000\214g\320~R\300Y\245\364L/\200R\300<\365H\203\333~R\300}\226\347\301\335~R\300\203N\010\035t\177R\300\212\216\344\362\037}R\300\024|\323\364\331\200R\300{2\377\350\233\177R\300\330\362\312\365\266~R\300\336\036\204\200|~R\300\265\211\223\373\035\200R\300K\346X\336U~R\300\000\000\000\240\332}R\300h\001\332V\263\177R\300\000\000\000\300.\177R\300J\016\330\325\344|R\300\255\335v\241\271\200R\300+1\317JZ}R\300\224\024X\000S}R\300g\323\021\300\315~R\300\331\345[\037\326~R\300|{\327\240/~R\300T<.\252E\177R\300\340\201\001\204\017\177R\300\340(yu\216~R\300\267\321\000\336\002\177R\300Xv\301\340\232}R\300D\210+g\357~R\300\257\354\202\3015~R\300\326T\026\205]\200R\300we\027\014\256\177R\300X\2505\315;\177R\300\020\003]\373\002}R\300_\2652\341\227\200R\300\000\000\000`\022~R\300\013\3541\221\322~R\3003R\357\251\234\202R\3009\326\305m4\177R\300\362*k\233\342~R\300\345\322\370\205W~R\300\373\306\327\236Y\200R\300\016\365\273\2605\177R\300r\277CQ\240}R\300\213\206\214G\251\200R\300\000\000\000@\200\177R\300_\2235\352!\177R\300\377\007X\253v\200R\300D\370\027Ac\177R\300J\230i\373W~R\300\000\000\000\200\275~R\300\022I\3642\212~R\300\206\343\371\014\250\177R\300\263|]\206\377~R\300\037\241fH\025\177R\300F ^\327/}R\300\232\226X\031\215}R\300\341\224\271\371F{R\300\036o\362[t~R\300\000\000\000\3408}R\300\236\354fF?~R\300LR\231b\016~R\300e\304\005\240Q\200R\300+\023~\251\237~R\300gB\223\304\222}R\300\227\036M\365d\177R\300\306\244\277\227\302~R\300\333\030;\341%~R\300\223XR\356>}R\300\227\377\220~\373~R\300[\262*\302M}R\300\222^\324\356W~R\300\027\267\321\000\336~R\300a\251.\340e\200R\300\225\177-\257\\~R\300?=\266e\300~R\300{\242\353\302\017~R\300f\203L2r~R\300}!\344\274\377~R\300VH\371I\265~R\300\325>\035\217\031\177R\300\376KR\231b~R\300u\344Hg`~R\300\220h\002E,\177R\300EGr\371\017\177R\300\2716T\214\363}R\3000\2031\"Q~R\300\013%\223S;\177R\300O\006G\311\253}R\300\000\000\000@m~R\300}\256\266b\177~R\300qo~\303D}R\300\334ID\370\027}R\300\221\326\030tB}R\300\221\273\010S\224\200R\300\031\314_!s\177R\300\201z3j\276}R\300<2V\233\377\177R\300\330\017\261\301\302\177R\300\376\234\202\374l|R\300\000\000\000@\263qR\300\216\003\257\226;\177R\300\205\261\205 \007\201R\300R_\226vj~R\300c\201\257\350\326}R\300M/1\226\351}R\300\257$y\256\357\177R\300o\230h\220\202\177R\300\0008\366\354\271~R\300\356\355\226\344\200\177R\300\324c[\006\234\200R\300\003\354\243SW~R\300\372\322\333\237\213|R\300\315\253:\253\005~R\300\000\000\000 5~R\300\265\335\004\3374~R\300\3171 {\275~R\300\000\000\000\000q~R\300P7P\340\235\177R\300\367\262\355\2645}R\300\277}\0358g\200R\300\272f\362\3156\200R\300/\210HM\273\177R\300\374\030s\327\022\200R\300\313\207\240j\364\177R\300 \232yrM~R\300RI\235\200&\177R\300\347\340\231\320$\177R\300i\214\326Q\325~R\300\210c]\334F\177R\300\322m\211\\p~R\300\307\324]\331\005\204R\300aQ\021\247\223~R\300\373B\310y\377~R\300\277%\000\377\224~R\300+\211\354\203,\177R\300\372*\371\330]\200R\300\213\340\177+\331wR\300\317\020\216Y\366|R\300p^\234\370j\177R\300\031tB\350\240~R\300i\343\210\265\370~R\300\275\343\024\035\311~R\300\270\351\317~\244|R\300\226\223P\372B\200R\300 \265\211\223\373~R\300\347O\033\325\351\177R\300\225({K9\177R\300#\335\317)\310~R\300\2439\262\362\313|R\300T\311\000P\305}R\3000\300>:u\200R\300(D\300!T}R\300\000\000\000`X\177R\300J\'\022L5\177R\300f\2129\010:\200R\300\235\362\350FX~R\300\201A\322\247U\177R\300=,\324\232\346|R\300\313\205\312\277\226\177R\300\315\222\0005\265~R\300L\030\315\312\366~R\300u \353\251\325~R\300\014\036\246}ssR\300[\010rP\302\177R\300\263\226\002\322\376uR\300\000\000\000\340\315|R\300\305\304\346\343\332~R\300\265\253\220\362\223~R\300\"5\355b\232rR\300\027J&\247v~R\300\022\365\202Os\177R\300\000\000\000`\362~R\300\207\336\342\341=\200R\300\343\301\026\273}\177R\300\035ut\\\215|R\300\206\376\t.VrR\300\022\334H\331\"}R\300\367\315\375\325\343\177R\3005}v\300u}R\300\364\030\345\231\227}R\300 `\255\3325\177R\300\002.\310\226\345\177R\300\303f\200\013\262~R\300w\241\271N#\177R\300\'1\010\254\034\200R\300\307\327\236Y\022|R\300\021T\215^\r}R\300\321\260\030u\255\200R\300\274\006}\351\355\177R\300T\346\346\033\321}R\300\236c@\366z\177R\300\010\257]\332p~R\300O\000\305\310\222~R\300-\226\"\371J}R\300\333\032\021\214\203\200R\300\325\347j+\366~R\300\334\177d:t\200R\300\000r\302\204\321yR\300\002\273\232<e}R\300\000\000\000\200\215\177R\300KY\2068\326~R\300\260X\303E\356~R\300#\330\270\376]\200R\300<I\272f\362\177R\300FA\360\370\366\177R\300\356_YiR~R\300\001K\256b\361~R\300[\355a/\024|R\300K\262\016GW~R\300\321\222\307\323\362~R\300\022\334H\331\"}R\300m\255/\022\332~R\300\261\027\n\330\016\201R\300\213\302.\212\036\201R\300\252)\311:\034}R\300K\352\0044\021~R\3008\204*5{\177R\300N\n\363\036g\200R\300\316\254\245\200\264~R\300h\223\303\'\235~R\300\373x\350\273[\200R\300\223<\327\367\341\177R\300\243Xni5}R\300\235\200&\302\206\200R\300\210\327\365\013v\177R\300@1\262d\216}R\300\323P\243\220d\200R\300\027\016\204d\001\200R\300\020 C\307\016\200R\300\323\370\205W\222~R\300\237]\276\365a\177R\300s\275m\246B\200R\300\001\304]\275\212\200R\300^\021\374o%}R\300\201\223m\340\016\177R\300\037\331\\5\317yR\300\250=%\347\304\177R\300B\356\"LQ\177R\300\376*\300w\233~R\300\243\222:\001M~R\300m\001\241\365\360~R\300\rq\254\213\333yR\300\337\373\033\264W}R\300\365\361\320w\267}R\300\013\263\320\316i\200R\300\335%qVD~R\300\242|A\013\t\177R\300\257\256\n\324b}R\300\223\341x>\003\203R\300\0223\373<F\200R\300\331;\243\255J\177R\300\360\336QcB\177R\300$bJ$\321~R\3000\324a\205[~R\300\342?\335@\201\177R\300\251\023\320D\330\200R\300\327\0253\302\333~R\300\327\022\362A\317|R\300\023\020\223p!\200R\300Ho\270\217\334\177R\300y\315\253:\253~R\300\335\230\236\260\304~R\300j\304\314>\217}R\300\253<\201\260S\177R\300D\215B\222Y\177R\300\343P\277\013[}R\300\350l\001\241\365|R\300\223\247\254\246\353\177R\300g\325\347j+~R\300\177\207\242@\237\200R\3002\317JZ\361}R\300T\336\216pZ\177R\300I\204F\260q~R\300v\345\263<\017}R\300\000\000\000\200\336~R\300\223q\214d\217~R\300NA~6r\177R\300}|Bv\336~R\300\3219?\305q~R\300\301\217j\330\357\200R\300\000\000\000\340\343\177R\300\350\370hq\306~R\300\000\000\000\340\033}R\300\366\230Hi6}R\300\002-]\3016\177R\300;V)=\323\177R\300\365\331\001\327\025}R\300\000\000\000\200\266~R\300gB\223\304\222zR\300\354\336\212\304\004~R\300M1\007AG\200R\300\271\033DkE~R\300\315\260Q\326o}R\300%Y\207\243\253~R\300\336o\264\343\206\177R\3002\311\310Y\330}R\300\014\261\372#\014\200R\300\020y\313\325\217~R\300\220L\207N\317~R\300\353;\277(A\177R\300$\t\302\025P~R\300m\344\272)\345|R\300e\247\037\324ErR\300\027\271\247\253;\177R\300\205\226u\377X~R\300\000\000\000\240\322~R\300fPmp\"~R\300\000\000\000@\256{R\300O\262\325\345\224~R\300\0320H\372\264\177R\300g\322\246\352\036wR\300\000\000\000`\275\177R\300\376*\300w\233\200R\300\375J\347\303\263~R\300\222\316\300\310\313\177R\300\272m\337\243\376}R\300V\361F\346\221~R\300=\320\n\014Y\200R\300\224\276\020r\336~R\300\207N\317\273\261~R\300\360M\323g\007\200R\300\347mlv\244\177R\300$\237W<\365~R\300=^H\207\207\177R\300,g\357\214\266~R\3006\002\361\272~~R\300O!W\352Y\177R\300\336\0003\337\301|R\300\256-</\025\200R\300\227qS\003\315|R\300<l\"3\027}R\300\240T\373t<~R\300\000\000\000@@\200R\300\232@\021\213\030\177R\300Z\273\355Bs~R\300\2303\333\025\372~R\300\034B\225\232=}R\300|\265\2438G~R\300@\237\310\223\244\177R\300\345\357\336Qc\200R\300\226\354\330\010\304\177R\300\000\000\000\240h~R\300\231\200_#I\200R\300\000\000\000\200\024\177R\300\351\316\023\317\331}R\300}v\300u\305\200R\300\266\206R{\021rR\300\000\000\000\300l\177R\300\325 \314\355^\177R\300*\222\257\004R\177R\300}x\226 #}R\300-@\333j\326\177R\300\277\020r\336\377~R\300\354I`s\016~R\300\271\3366S!\177R\300JbI\271\373mR\300K\350.\211\263sR\300 \270\312\023\010\200R\300\tpz\027\357~R\300\201\260S\254\032}R\300z\215]\242z}R\300\367w\266Go~R\300(\322\375\234\202}R\300\313\241E\266\363|R\300\303~O\254S~R\300\345\013ZH\300~R\300%\035\345`6\200R\300\313\236\0046\347\177R\300\224\204D\332\306~R\300\262\202\337\206\030}R\300\251\026\021\305\344{R\300\320\315\376@\271~R\300\237\001\365f\324~R\300\000\000\000\000q|R\300$\324\014\251\242~R\300V_]\025\250\177R\300\3544\322Ry\177R\300\233\3117\333\334wR\300\000\000\000\300p~R\300\363\032\273D\365}R\300\227\375\272\323\235\177R\300)$\231\325;\177R\300\013\324b\3600~R\300C!\002\016\241}R\300\031\004V\016-\177R\300\353\344\014\305\035}R\300\000\000\000\000\024\177R\300\000\000\000\300\244~R\300\nh\"lx\200R\300\264\000m\253Y\213R\300Ll>\256\r\200R\300\232_\315\001\202\177R\3006\351\266D.}R\300\306\371\233P\210~R\300\361\274Tl\314|R\300.\341\320[<\177R\300xF[\225D}R\300\260\217N]\371{R\300\336\216pZ\360}R\300\340LL\027b}R\300/6\255\024\002\200R\300\233\033\323\023\226\200R\300\022\023\324\360-}R\300\377Z^\271\336|R\300\300\356t\347\211~R\300\350\366\222\306h}R\300\321\2232\251\241\177R\300\214-\0049(}R\300\367;\024\005\372|R\300\312\304\255\202\030}R\300z\252Cn\206\177R\300\355\022\325[\003\177R\300\246\232YK\001~R\300\257%\344\203\236|R\300Y\210\016\201#\177R\300Xni5$~R\300\206R{\021m|R\300\000\000\000\200\363~R\300qu\000\304]\200R\300\007\"\2134\361|R\300X\302\332\030;\177R\300\037\207\301\374\025\200R\300\201\230\204\013y~R\300)\313\020\307\272}R\300\327\330%\252\267~R\300\300#*T7~R\300\366Cl\260p\177R\300D\375.l\315\177R\300)\006H4\201\177R\300\261\026\237\002`}R\300\000\000\000\340\207}R\300\257\256\n\324b\177R\300\35025\t\336~R\300\336\221\261\332\374~R\300z\213\207\367\034\177R\300\264\310v\276\237}R\300\323\364\331\001\327~R\300\341\227\372yS}R\300:=\357\306\202\200R\300\003\314|\007?~R\3006\315;N\321|R\300\236E\357T\300}R\300\322\306\021k\361\177R\300\204\016\272\204C}R\300R~R\355\323}R\300\261\026\237\002`\200R\300\373^Cp\\~R\300WuV\013\354~R\300\236\316\025\245\204~R\300E\326\032J\355~R\300\234MG\0007\177R\300\201\225C\213l\177R\300\341B\036\301\215}R\300\013\233\001.\310~R\300\202\376B\217\030\200R\300\341\riT\340~R\300\324\200A\322\247|R\300\000\000\000\200)\177R\300Y\204b+h\177R\300\250\213\024\312\302}R\300E,b\330a\200R\300\360\341\222\343NzR\300\251\336\032\330*\200R\300\022/O\347\212\177R\300\206\035\306\244\277~R\300\323\340\266\266\360~R\300[\353\213\204\266\177R\300M.\306\300:\177R\300\\Z\r\211{\177R\300\013H\373\037`wR\300\006\024\352\351#~R\300\303\013\"R\323|R\300\353\252@-\006\177R\300\342\351\225\262\014~R\300\366\200y\310\224}R\300[\353\213\204\266wR\300\223\346\217im}R\300\220\024\221a\025\177R\300a\342\217\242\316\200R\300E\327\205\037\234~R\300\000\000\000\3000|R\300\236\tM\022K\200R\300\005\367\003\036\030\201R\300\303E\356\351\352~R\300\020\353\215Za~R\300\307C\337\335\312\177R\300\000\000\000\000\034\200R\300\270\034\257@\364~R\300\3436\032\300[\200R\300\340K\341A\263wR\300\316\210\322\336\340\200R\300\327\204\264\306\240~R\3002;\213\336\251\177R\300\301\032g\323\021}R\300\307\233\374\026\235~R\300_\317\327,\227~R\300\227\312\333\021N\177R\300\000\000\000\340\342~R\300t\316Oq\034\177R\300Ps\362\"\023~R\300\t\243Y\331>~R\300\223\244k&\337~R\300\2343\242\2647~R\300\271\374\207\364\333}R\300\250r\332Sr|R\300\220\023&\214f\200R\300\340\271\367p\311\177R\300_\325Y-\260~R\300\"\032\335A\354~R\300\027\267\321\000\336~R\300O[#\202q\177R\300io\360\205\311{R\300\204\233\214*\303~R\300\335>\253\314\224~R\300\3579\260\034!~R\300-!\037\364l~R\300\364\305\336\213/\177R\300\225\234\023{h\177R\300I,)w\237\213R\300e\306\333J\257qR\300;\217\212\377;\177R\300\321\001I\330\267wR\300\235FZ*o}R\300\000\000\000\300N~R\300O\222\256\231|\200R\300M\2027\244Q\177R\300\000\000\000\340o}R\300~\216\217\026g\177R\300\036\251\276\363\213\177R\300\001\241\365\360e}R\300:!t\320%\200R\300\310\322\207.\250~R\300\375\366u\340\234~R\300\'\022L5\263}R\300\004\315\347\334\355~R\300W\224\022\202U}R\300\000\034{\366\\~R\300Qi\304\314>}R\300\205\232!U\024}R\300D\374\303\226\036\177R\300C\254\376\010\303~R\300\3645\313e\243~R\300\375.l\315V{R\300h\355\266\013\315~R\300\\X7\336\035~R\300\307\331t\004p~R\300\252\324\354\201V|R\300\354\211\256\013?~R\300+\366\227\335\223\177R\300\353\255\201\255\022}R\300\375M(D\300}R\300T\215^\rP\177R\300\204f\327\275\025~R\300\374\304\001\364\373|R\300;V)=\323\200R\300\363T\207\334\014}R\300\332SrN\354\177R\300\17731]\210~R\300B\\9{g~R\300\304\266E\231\r~R\300\366A\226\005\023\177R\300tCSv\372~R\300\000\000\000`6\177R\300\300\347\207\021\302\177R\300\246)\002\234\336~R\300\215\321:\252\232}R\300\343s\'\330\177\177R\300\242`\306\024\254\177R\300Vg\265\300\036\177R\300\244\304\256\355\355\177R\300\274\2605[y}R\300h\263\352s\265|R\300\000\035\346\313\013{R\300\272\024W\225}\177R\300h\005\206\254n\177R\300m<\330b\267~R\300U0*\251\023~R\300\210\3326\214\202\177R\300\023a\303\323+\200R\300\277\232\003\004s~R\3001@\242\t\024\200R\300$~\305\032.}R\300\224h\311\343i~R\300\177-\257\\o|R\300\226Ea\027E\200R\300T\001\367<\177}R\300nk\013\317KzR\300\000\000\000@\245\200R\300\307\016*q\035\177R\300\305v\367\000\335~R\300\000\000\000\240t~R\300\233\307a0\177~R\300\303i\301\213\276}R\300\000\000\000@\347~R\300R\236y9\354|R\300\231I\324\013>\177R\300\370\375\233\027\'}R\30035\t\336\220}R\300\3578EGr\200R\300\376e\367\344a|R\300\377\037\'L\030|R\3009\274 \"5\200R\300!\352>\000\251\200R\300\225,\'\241\364\177R\300\23427\337\210\200R\300\021P\341\010R|R\300X>\313\363\340~R\300\276\373\343\275j\200R\300~\000R\2338\200R\300\007\314C\246|\177R\300}\315r\331\350~R\300\212\037c\356Z\200R\300\250\247\217\300\037\177R\300\000\000\000\340\240\200R\300\324\2707\277a\200R\300\302k\2276\034\177R\300~\0358gDyR\300qVDM\364}R\300d\307F ^\177R\300\275R\226!\216\177R\300\242\266\r\243 uR\300g\201v\207\024}R\300\000\000\000\200\244}R\3008\275\213\367\343~R\300\206\035\306\244\277~R\300\226\n*\252~}R\300\263b\270:\000\177R\300\312\000P\305\215|R\300\230N\3536\250|R\300\306\334\265\204|zR\300\347\375\177\2340\177R\300\323HK\345\355~R\300\365\30126t}R\300\302l\002\014\313HR\300\313J\223R\320yR\300\252\323\201\254\247|R\300G\252\357\374\242~R\300\323HK\345\355~R\300\2511!\346\222\177R\300\332\312K\376\'\200R\300DSv\372A\200R\300\013\324b\3600\177R\300\227vj.7\200R\300\251\025\246\3575~R\300`\256E\013\320}R\300\324I\266\272\234\177R\300PR`\001L|R\300\363\347\333\202\245{R\300M\243\311\305\030\200R\300\243\0357\374n}R\300p\314\262\'\201|R\300V\013\3541\221\200R\3001\263\317c\224}R\300\251\277^a\301\200R\300\306\245*mq\200R\300i\002E,b\177R\300If\365\016\267|R\300\265\253\220\362\223~R\300\227\305\304\346\343~R\300\3603.\034\010\177R\300\335\314\350G\303\177R\300\237u\215\226\003\200R\300\347\376\352q\337~R\300\000\000\000`\310~R\300\251M\234\334\357}R\300\201\036j\3330\177R\300\321\005\365-s~R\300\ro\326\340}}R\300\350\201\217\301\212~R\300\240\216\307\014T}R\300=|\231(B\200R\300\272\364/Ie}R\300\353\304\345x\005\201R\300\364o\227\375\272}R\300\232\225\355C\336~R\300\210G\342\345\351\177R\300\331\320\315\376@~R\300\360\277\225\354\330\200R\300\212\037c\356Z\177R\3006\255\024\002\271}R\300\324\327\3635\313\200R\300\365\364\021\370\303~R\300\357\036\240\373r~R\300\000\000\000\2404\177R\300\356\224\016\326\377\177R\300\'.\307+\020rR\3002\223\250\027|\177R\300\370q4GV\200R\300\024\256G\341z}R\300J\016\330\325\344|R\300\240\301\246\316\243|R\300\212\347l\001\241\177R\300C\255i\336q~R\300\375N\223\031o\177R\300]\375\330$?~R\300\264s\232\005\332~R\300\220\245\017]P\177R\300g\273B\037,\177R\300:\317\330\227l~R\300\360\213KU\332\\R\300W\2649\316m\200R\300\315=$|\357}R\300\304\tL\247u}R\300R,\267\264\032\201R\300\200\364M\232\006zR\300\245h\345^`\200R\300\353pt\225\356{R\300+\373\256\010\376}R\300Q\025S\351\'~R\300\313\200\263\224,~R\300\030#\022\205\226~R\300m\223\212\306\332}R\300\362F\346\221?\200R\300\000\000\000\300\234~R\300S\224K\343\027}R\300\357W\001\276\333~R\300\241g\263\352s\200R\300R{\021m\307\200R\300\313\365\266\231\n\201R\300q\000\375\276\177~R\300\271p $\013|R\300?n\277|\262vR\300B \2278\362\177R\300\263A&\0319~R\300\366\264\303_\223rR\300\000\000\000@c~R\300\367\316h\253\222~R\300k\014:!t~R\300eT\031\306\335}R\300_\232\"\300\351\200R\300\344\241\357ne\177R\300\r\336W\345B|R\300U\277\322\371\360}R\300]P\3372\247\177R\300s\20269|}R\300\000\000\000\340 ~R\300f\243s~\212~R\300>\"\246D\022\200R\300\376)U\242\354~R\300R\265\335\004\337~R\300\020\317\022d\004\177R\300\230\330|\\\033}R\300\\\311\216\215@\177R\300\000\000\000 \307yR\300\223\377\311\337\275zR\300\302\332\030;\341}R\300\262+-#\365}R\300\355e\333ik}R\300\334\236 \261\335\177R\300\270\222\035\033\201~R\300j\202\250\373\000\177R\300\000\000\000\340T\177R\300)A\177\241G}R\300e\216\345]\365~R\300\005\215\231D\275~R\300\323\023\226x@}R\300\220\245\017]P~R\300\265\374\300U\236}R\300\000\000\000\200\007\200R\300~\216\217\026g}R\300B]\244P\026\177R\300\322\310\347\025O\177R\300g|_\\\252~R\300\275\336\375\361^\201R\300\255\203\203\275\211\177R\300^M\236\262\232~R\300\000\000\000\000I\177R\300\325\227\245\235\232{R\300TT\375J\347|R\300s\275m\246B~R\300\323hr1\006}R\300\366Cl\260p\177R\300\345a\241\3264\177R\300\r9\266\236!wR\300g)YNB\177R\300\021\255\025m\216\201R\300\363\376?N\230~R\300\233\312\242\260\213\200R\3008K\311r\022}R\3005c\321tv\177R\300\331\355\263\312L\200R\300\274w\324\230\020~R\300\331\353\335\037\357}R\300\240\243U-\351|R\300\335\357P\024\350~R\300v\302Kp\352~R\300\372\tg\267\226\177R\300;\347\2478\016~R\300\250\306K7\211}R\300\000\000\000\300\344\177R\300\275\215\315\216T~R\300~\251\2377\025\177R\300\367\316h\253\222~R\300w\204\323\202\027~R\300.\220\240\3701\200R\300\276.\303\177\272|R\300\315=$|\357|R\300\333\337\331\036\275}R\300\000\000\000`z\177R\300*\0011\t\027\177R\300\323\204\355\'c~R\300\271lt\316O}R\300\254Q\017\321\350|R\300,F]k\357~R\300\304\226\036M\365\177R\300\036\247\350H.\177R\300R\201\223m\340}R\300\325x\351&1\200R\300qw\326n\273}R\300\241l\312\025\336}R\300\006\271\2130E\177R\300\243\255J\"\373|R\300\375\027\010\002d~R\300m\216s\233p\177R\300T\336\216pZ}R\300\203S\037H\336\200R\300@0G\217\337}R\300u:\220\365\324~R\300\027.\253\260\031\177R\300\000\000\000\000\274~R\300\333P1\316\337}R\300?\027\r\031\217\177R\300T\000\214g\320\177R\300\274\353l\310?\177R\300nlv\244\372|R\300c~nh\312\177R\300\316\375\325\343\276~R\300\353\253\253\002\265~R\300,D\207\300\221\177R\300\370\372Z\227\032\200R\300x\355\322\206\303~R\300\265\373U\200\357|R\300-\262\235\357\247~R\300\243[\257\351A\177R\300\3678\323\204\355\177R\300\017\266\330\355\263\177R\300\314}r\024 yR\300\3058\177\023\n\177R\300r\214d\217P~R\300QMI\326\341\200R\300sK\253!q|R\300\256\264\214\324{\200R\300;\305\252A\230~R\300\200c\317\236\313~R\300%w\330Df|R\300\371/\020\004\310~R\300$y\256\357\303}R\300\224\333\366=\352}R\300\264T\336\216p~R\300$\013\230\300\255|R\300t\322\373\306\327~R\300T\350\274\306.\177R\300\317\200z3j\200R\300\351&1\010\254\177R\300\223\246A\321<\200R\300W$&\250\341\177R\300\372\321p\312\334\177R\300\200F\351\322\277\177R\300\027g\014s\202~R\300\312O\252}:\200R\300\250\000\030\317\240yR\300\031u\255\275O}R\300\342r\274\002\321}R\300x\262\233\031\375}R\300\265O\307c\006\200R\300\330G\247\256|~R\300x\016e\250\212\200R\300\000\000\000`\270\200R\300\035X\216\220\201~R\300]\213\026\240m~R\300\265\033}\314\007yR\300\321\352\344\014\305wR\300A\330)V\r\177R\300\023\357\000OZwR\300x\234\242#\271~R\300\275\035\341\264\340~R\300\361e\242\010\251}R\300\000\000\000\300\342\200R\300\274<\235+J~R\300fKVE\270\177R\300\374\246\260RA\177R\300y\353\374\333e|R\300(+\206\253\003}R\300\247\321\344b\014\200R\300\330\233\030\222\223~R\300\355\r\2760\231~R\300w\021\246(\227|R\3005\322Ry;~R\300)a\246\355_wR\300z\247\002\356y|R\300\351B\254\376\010\200R\300\316\373\3778a\200R\300W\347\030\220\275\177R\300\031\221(\264\254\200R\300v\030\223\376^\177R\300\023\t\246\232Y\177R\300\251\212\251\364\023}R\300\367\034X\216\220}R\300\230\366\315\375\325~R\300\027Mg\'\203\200R\300\310\014T\306\277~R\300\375\0252W\006~R\300\362\225@J\354\177R\300\356\010\247\005/\200R\300\000\000\000\200\214\177R\300t\322\373\306\327\177R\300+mq\215\317}R\3001\262d\216\345}R\300\005\030\226?\337}R\3009\316m\302\275|R\300\344\022G\036\210|R\300\t\251\333\331W~R\300H\302\276\235D\200R\300\3233\275\304X~R\300\233:\217\212\377\177R\300>\005\300x\006~R\300\000\000\000\200\200}R\300\030\262\272\325s\177R\300\276\276\326\245F\177R\300\247\352\036\331\\}R\300\324+e\031\342~R\3006W\315sD\177R\300S$_\t\244~R\300j\336q\212\216}R\300\251\242x\225\265|R\300\236\2336\3434\177R\300Dio\360\205~R\300\251\331\003\255\300\177R\300cE\r\246a}R\300\3328b->~R\300\000\000\000@s\177R\3002\313\236\0046~R\300\001\340\330\263\347~R\300\367\037\231\016\235}R\300\315\221\225_\006~R\300\027\321vL\335}R\300\275\032\2404\324~R\300\023\'\367;\024~R\3003\304\261.n\177R\300y?n\277|\177R\300\200F\351\322\277}R\300\276\241\360\331:~R\300\274\226\220\017z\177R\300&U\333M\360~R\300k\237\216\307\014\177R\300=\363r\330}|R\300\246\226\255\365E\177R\300\253Cn\206\033\177R\3004\242\2647\370~R\300\327\243p=\n\177R\300erjg\230\200R\300Swe\027\014\177R\300?\216\346\310\312}R\300B{\365\361\320\177R\300\331\005\203k\356}R\300\251/K;5~R\300\026\371\365Cl~R\300\314\363\340\356\254xR\300\210\016\201#\201~R\3004\274Y\203\367\177R\300\205~\246^\267\177R\300\n\366_\347\246\213R\300\217\026g\014s\177R\300}@\2403i\177R\300\354\242\350\201\217\200R\3009(a\246\355|R\300\203\025\247Z\013\177R\300\010X\253vM}R\300\000\000\000\000\344|R\300\000\000\000\000\314\177R\300\201v\207\024\003}R\300y\315\253:\253|R\300\n\235\327\330%\177R\300?\303\2335x}R\300\250r\332Sr\177R\300\000\000\000 \t\177R\300\342\347\277\007\257\177R\300\264T\336\216p\177R\300\000\000\000\000\261}R\300\320\360f\r\336~R\300\311\313\232X\340~R\300\332t\004p\263}R\300_$\264\345\\\177R\300\337QcB\314~R\300\251\374ky\345~R\300\274\\\304wb\177R\300\303\2335x_rR\300\031u\255\275O~R\300\2346\3434D\177R\300_\230L\025\214}R\300)\007\263\t0\177R\300n\210\361\232W\213R\300\"5\355b\232~R\300\340e\206\215\262\200R\300\036\341\264\340E~R\300\014\347\032fh~R\300\374n\272e\207~R\300\022+\243\221\317~R\300\325\263 \224\367|R\300 zR&5\177R\300\302k\2276\034\177R\300\000\000\000\200\027\177R\300\344\242ZD\024~R\300\3374}v\300}R\300\026\204\362>\216\177R\300r\211#\017D\177R\300\301\033\322\250\300~R\300\357\306\202\302\240~R\300\026\375\241\231\'\177R\300s\275m\246B\200R\300;\247Y\240\335|R\300\330\356\036\240\373\177R\300\233oD\367\254}R\300\315\314\314\314\314|R\300]\214\201u\034\177R\300\000\000\000\240\321~R\300\332t\004p\263|R\300\257\261KTo}R\300\000\000\000\340\220\177R\300\316\334C\302\367\177R\300\225\356\256\263!}R\300\020 C\307\016\177R\300\276\201\311\215\"}R\300\342Z\355a/\177R\300\317\022d\004T\200R\300<\021\304y8\200R\300=\236\226\037\270}R\300\030\227\252\264\305~R\300\225\rk*\213~R\300\317K\305\306\274|R\300[\261\277\354\236\177R\300V\016-\262\235}R\300_`V(\322~R\300\024$\266\273\007\177R\300\265\251\272G6\177R\300@\212:s\017}R\300y\036\334\235\265~R\300A\202\342\307\230\177R\300v\302Kp\352xR\300\355fF?\032xR\300KTo\rl}R\300\357\311\303B\255~R\3004\202\215\353\337\177R\300\262\235\357\247\306~R\300s\334)\035\254~R\300+\3373\022\241\177R\300\362\"\023\360k\177R\300l\010\216\313\270~R\300,-#\365\236}R\300h\261\024\311W~R\300\260!8.\343~R\300\013\260\217N]\177R\300&9`W\223\200R\300\237\002`<\203\200R\300\214c${\204\200R\300K\313H\275\247}R\300\000\000\000\300\331~R\300\"4\202\215\353~R\300\232#+\277\014~R\300\007\354j\362\224\177R\300V)=\323K~R\300\203\241\016+\334\200R\300\226\007\351)r\177R\300\247\350H.\377\177R\300%\354\333ID\200R\300\337\025\301\377V{R\300\014 |(\321}R\300\363t\256(%~R\300\342\220\r\244\213\177R\300\340\241(\320\'}R\300w+Kt\226\200R\300\016\335\354\017\224~R\300\202\311\215\"k\177R\300\220L\207N\317}R\300\023G\036\210,~R\300\303\325\001\020w\177R\300v\031\376\323\r}R\3006W\315sD~R\300\325\255\236\223\336~R\300n\023\356\225y\200R\300\333\372\351?k}R\300\r\214\274\254\211\177R\300\351\232\3117\333~R\300o\326\340}U\177R\300\345\322\370\205W~R\300\274=\010\001\371~R\300\'\022L5\263~R\300\037\023)\315\346~R\3009\016\274Z\356}R\300\253\006an\367~R\300\230\370\243\2503~R\300\307\267w\r\372\177R\300\247\351\263\003\256~R\300\211{,}\350}R\300\240\000\212\221%}R\300\201\227\0316\312~R\300\000\000\000@\275\200R\300\234\252{ds\200R\300\000\000\000\000H\177R\300\346\002\227\307\232\177R\300\222\221\263\260\247}R\300+\245gz\211zR\300\002\232\010\033\236}R\300DN_\317\327~R\300V\364\207f\236rR\300\002Hm\342\344~R\300X\340+\272\365\177R\300\233\3117\333\334{R\300oJy\255\204|R\300$\'\023\267\n~R\300\365JY\2068\177R\300\207\302g\353\340~R\300\222@\203M\235~R\300\217St$\227\177R\300\311\256\264\214\324}R\300\265o\356\257\036\200R\300\306\372\006&7\177R\300\345\013ZH\300\200R\300\n\3705\222\004}R\300\233\256\'\272.\177R\300\r\305\035o\362\177R\300\272\337\241(\320~R\300\360\207\237\377\036~R\300ywd\2546\177R\300t\270V{\330\177R\300\310\n~\033b\177R\300\245\327fc%{R\300y\351&1\010\200R\300\000\000\000 t~R\300\033\204\271\335\313tR\300\226>tA}\177R\3001\224\023\355*~R\300\230\303\356;\206\200R\3005{\240\025\030\177R\300\265\303_\2235\200R\300\026\302j,a\177R\300\230OV\014W\177R\300\\t\262\324z\200R\300\272c\261M*\177R\300u\004p\263x\177R\300\360j\2713\023\177R\300\2503\367\220\360\200R\300\221\230\240\206o~R\300\000\000\000\0003\177R\300\226\320]\022g\200R\300\364\212\247\036i\177R\300\243\3120\356\006}R\300\262c#\020\257\177R\300\217q\305\305Q\200R\300S\230\3678\323~R\300\272\242\224\020\254\177R\300\241i\211\225\321{R\300\261\341\351\225\262}R\300\254Yg|_}R\300_&\212\220\272~R\300\022\205\226u\377~R\300\024\005\372D\236~R\300\302l\002\014\313~R\300\343\207J#f~R\300\000\000\000\000\316{R\300->\005\300x\177R\300e\033\270\003u~R\300\017{\241\200\355\177R\300\237t\"\301T\177R\300\000\000\000 z~R\300\000\000\000\200\333\177R\300\000\000\000 [\200R\300#\274=\010\001\201R\300\025\217\213j\021\200R\300\316\305\337\366\004\177R\300,*\342t\222\177R\300\000\000\000\300D\200R\300\265\210(&o\177R\300\336 Z+\332}R\300\330\322\243\251\236~R\300\376\203H\206\034}R\300\243]\205\224\237\177R\300f\335?\026\242}R\300?\033\271nJ~R\300\261\337\023\353T}R\300\336q\212\216\344|R\300f\2129\010:~R\300BDj\332\305~R\300\016Ln\024Y}R\300\346\257\220\2712\177R\300<\367\036.9\200R\300q\351\230\363\214|R\300\206\250\302\237\341|R\300\031q\001h\224~R\300\241\270\343M~\177R\300 \233\344G\374\177R\300D\375.l\315~R\300\260\037b\203\205\200R\300\225d\035\216\256~R\300\265\3055>\223\177R\300\010\344\022G\036\177R\300\000\000\000`\310~R\300Vg\265\300\036~R\300\362\314\313a\367|R\300\272\331\037(\267sR\300Z\360\242\257 ~R\300\326\342S\000\214\177R\300\237\002`<\203~R\300Ks+\204\325|R\300tB\350\240K~R\300{\017\227\034w\177R\300u\004p\263x}R\300\274t\223\030\004}R\300\000\000\000\000D~R\300\273\'\017\013\265~R\300\001\365f\324|\177R\300\214h;\246\356\177R\300\334\240\366[;\200R\300\027\330c\"\245}R\300\006\242\'eR}R\300\237\346\344E&\177R\300\000\000\000\200\030\200R\300\007\267\265\205\347~R\300\272\325s\322\373~R\300Mf\274\255\364~R\300\265\241b\234\277\177R\300\020&\305\307\'~R\300\206tx\010\343\177R\300F*\214-\004zR\300\000\000\000\000\375}R\300\262\021\210\327\365\177R\300\337\027\227\252\264zR\300\331!\376aK|R\300\264:9Cq\177R\300\241\331uoE~R\300\003\265\030<L\200R\300b\272\020\253?\177R\300t\226Y\204b\200R\300\303\'\235H0\200R\300>\224h\311\343~R\300E\364k\353\247}R\300 \355\177\200\265~R\300TrN\354\241\200R\300C;\247Y\240~R\300>\224h\311\343}R\3005\'/2\001\177R\300\030\014\256\271\243\200R\300r\374Pi\304\177R\300c\177\331=y~R\300\000\000\000@J\177R\300\241\237\251\327-}R\300\311\0356\221\231\177R\300\304\010\341\321\306|R\300\320c\224g^~R\300\013F%u\002~R\300\251\023\320D\330|R\300\343\376#\323\241\200R\300\325\347j+\366\177R\300\000\311t\350\364|R\300\325\006\'\242_\177R\300J\362\\\337\207uR\300\330\356\036\240\373~R\300\341B\036\301\215}R\300\227\305\304\346\343~R\300|fI\200\232~R\300\037L\212\217O\177R\300vs\361\267=~R\300\240\207\3326\214\177R\300v\340\234\021\245~R\300\030[\010rP}R\3000*\251\023\320\177R\300\000\000\000\000y~R\300]\370\301\371\324|R\300\000\000\000\000\372|R\300\"2\254\342\215}R\300\000\000\000\2004\177R\300\000\000\000`j~R\300\220\335\005J\n\177R\300\311W\002)\261~R\300\243\006\3230|~R\300\334.4\327i\200R\300\354L\241\363\032\177R\300\000\000\000@l\200R\300\362*k\233\342yR\300\010\346\350\361{|R\300\000\000\000@\211}R\300\000\000\000\300I\177R\300\313\241E\266\363}R\300\000\000\000@\200\200R\300\232\010\033\236^\200R\300\356<\361\234-}R\300\373\000\2446q~R\300=\014\255N\316\177R\300\004\257\226;3\177R\300\307M\r4\237~R\300\352\263\003\256+~R\300:X\377\3470wR\300\324`\032\206\217}R\300\002\323i\335\006\177R\300E\201>\221\'\177R\300\000\211&P\304~R\300-[\353\213\204\177R\300\000\000\000`\031}R\300\035\004\035\255j\177R\300!v\246\320y|R\300\245\210\014\253x\200R\300\260\351AA)~R\300\234.\213\211\315\177R\300\305\214\360\366 \200R\300i\247\346r\203}R\300\252\267\006\266J|R\300\244\2503\367\220\177R\300Va3\300\005\201R\300\0056\347\340\231\177R\300S$_\t\244|R\300\313\333\021N\013\201R\3001\262d\216\345~R\300\013]\211@\365~R\3000\365\363\246\"\200R\300\000\000\000\200\232\177R\300\000\000\000\0005~R\300Q\245f\017\264~R\300\0214f\022\365|R\300Yk(\265\027~R\300`x%\311s\177R\300\274]/M\021}R\300\036\303c?\213~R\300\241\330\n\232\226\177R\300\270\314\351\262\230~R\300\016\025\343\374M\200R\300\031\314_!s\177R\300\202:\345\321\215|R\300\027_\264\307\013\177R\300F<\331\315\214\200R\300\005\302N\261j\177R\300\362\"\023\360k~R\300 \322o_\007~R\300e\031\342X\027}R\300\367\347\242!\343~R\300=Fy\346\345}R\300\210+g\357\214~R\300\307\202\302\240L}R\300\":\004\216\004\200R\300&\213\373\217L\177R\300\246\265il\257}R\300\034\010\311\002&\177R\300s\364\370\275M\177R\300\315X4\235\235~R\300\233\377W\0359~R\300\355E\264\035S}R\300j\245\020\310%\177R\300;U\276g$~R\300v\367\000\335\227|R\300\326\251\362=#\177R\300\272\335\313}r\177R\300eQ\330E\321~R\300\221c\353\031\302~R\300+\240PO\037|R\300\351\177\271\026-\200R\300\033fh<\021\200R\300\177-\257\\o~R\300\025\305\253\254m\200R\300\226!\216uq\177R\300\300$\225)\346~R\300\322\341!\214\237~R\300\267\232u\306\367\200R\300\000\000\000 \244~R\300\221\200\321\345\315}R\300\307\021k\361)\177R\300q\222\346\217i\177R\300\000\000\000\240T~R\300h\'\203\243\344}R\300\005\335^\322\030}R\300,\324\232\346\035~R\300\013~\033b\274}R\300\303c?\213\245~R\300\366B\001\333\301\200R\300\325!7\303\r\177R\300\354\335\037\357U\200R\300G\003x\013$\177R\300\01634\236\010\200R\300\035\035W#\273\200R\300\3604\231\361\266\177R\300\010wg\355\266\200R\300N\360M\323g~R\300\255\210\232\350\363~R\300\000\000\000@\220~R\300\365\335\255,\321}R\300\2552SZ\177}R\3008/N|\265~R\300\322q5\262+~R\300\336\343L\023\266\177R\300q;4,F|R\300 [\226\257\313~R\300:[@h=~R\300e\215z\210F\177R\300\002\363\220)\037\200R\300?\304\006\013\'~R\300\240\032/\335$\177R\300M0\234k\230~R\300\000\000\000\300t\200R\300W\005j1x\177R\300<\337O\215\227~R\300\264\216\252&\210}R\300\226^\233\215\225}R\300&\376(\352\314~R\300&m\252\356\221~R\300\006\364\302\235\013\200R\300lxz\245,\200R\300\347\340\231\320$}R\300\014V\234j-{R\300\240\025\030\262\272~R\300`\220\364i\025\201R\300j\276J>v~R\300\341\361\355]\203~R\300\371\017\351\267\257\177R\300.\220\240\3701}R\300\021\252\324\354\201\200R\300\242\235\323,\320\177R\300T<.\252E\200R\300\263\200\t\334\272}R\300\206\221^\324\356\177R\300F\013\320\266\232}R\300\232[!\254\306~R\300\351\177\271\026-}R\300\000\000\000\000\260|R\300/\302\024\345\322\177R\300\177m\375\364\237~R\300\3023\241Ib}R\300\345\'\325>\035\177R\300\317K\305\306\274\177R\300\231\237\033\232\262{R\300e\304\005\240Q{R\300\000\000\000\240p\177R\300\223\030\004V\016~R\300:\222\313\177H\177R\300R\'\240\211\260\177R\3009\226w\325\003zR\300\251\205\222\311\251}R\300\302\022\017(\233~R\300\335{\270\344\270~R\300\237\261/\331xzR\300\2279]\026\023\177R\300\004\315\347\334\355zR\300l\260p\222\346~R\300\000!\222!\307}R\300\272LM\2027~R\300\354\210C6\220\177R\300\257\256\n\324b~R\300\201\220,`\002~R\300\335$\006\201\225~R\300?\032N\231\233\177R\300x\356=\\r~R\300\341}U.T|R\300\342\346T2\000\177R\300\254\251,\n\273~R\300\033\023b.\251~R\300\002\356y\376\264~R\300 II\017C~R\300\237\347O\033\325\177R\300\352%\3062\375\177R\300^\202S\037H~R\300X\260\215x\262~R\300&\337lsc\177R\300\000\031:vP\200R\300\210/\023EH\200R\300XXp?\340|R\300q\377\221\351\320|R\300-\262\235\357\247\200R\300mV}\256\266}R\300\\\251gA(\201R\300}\261\367\342\213\177R\300\347\345\260\373\216\177R\300\323\244\024t{\177R\300\226Ea\027E\200R\300\000\000\000\3407\177R\300I\203\333\332\302~R\300->\005\300x|R\300\000\000\000\340W\177R\300\276/.Ui~R\300D\210+g\357}R\300\354Nw\236x~R\300\330\237\304\347N\200R\300\023\200\177J\225\177R\300\236@\330)V{R\300\261g\317ej}R\300\335\267Z\'.}R\300\001\340\330\263\347|R\300eRC\033\200\200R\3001\\\035\000q\177R\300\\ A\361c\177R\300\220,`\002\267yR\300\234.\213\211\315}R\300\201$\354\333IwR\300\336\310<\362\007}R\300}\"O\222\256\177R\3009b->\005~R\300\000\000\000`d\177R\300\331\221\352;\277~R\300 \t\373v\022rR\300\334~\371d\305\200R\300\303\017\316\247\216~R\300 \nfL\301\177R\300\355\325\307C\337~R\300\020\004\310\320\261~R\300X zR&wR\300W\356\005f\205~R\300d\003\351b\323}R\300Tq\343\026\363\177R\300\377\314 >\260qR\300^f\330(\353}R\300R\360\024r\245~R\300\375N\223\031o~R\300\351\361{\233\376~R\300\241\333K\032\243}R\300\001\301\034=~~R\300\000\000\000\000\267~R\300\037\016\022\242|}R\300=~o\323\237~R\300\347O\033\325\351\177R\300\355a/\024\260\177R\300\000\000\000`@}R\300N\317\273\261\240\177R\300\317\333\330\354H\200R\300\000\000\000\240\033\177R\300\221g\227o}\177R\300\032\375h8e~R\3008L4H\301~R\300\234\212T\030[}R\300-@\333j\326~R\3004\364Op\261~R\300\230\300\255\273y}R\300\000\000\000`Z~R\300\371\022*8\274~R\300\016\201#\201\006\177R\300\r\375\023\\\254~R\300\000\000\000\300\246}R\300\375\330$?\342}R\300\243W\003\224\206\177R\300=b\364\334B\177R\300%s,\357\252~R\300\262\235\357\247\306zR\300/\302\024\345\322}R\300\337lscz}R\300+\370m\210\361}R\300\245\332\247\3431\177R\300\376~1[\262|R\3008\277a\242A\200R\300\252}:\0363}R\300SB\260\252^\177R\300\221\225_\006c|R\300[GU\023D\177R\300\026\031\035\220\204~R\300\035\344\365`R}R\300\362[t\262\324~R\300\262\325\345\224\200\200R\300\000\000\000\340\357\177R\300\376\177\2340a\177R\300\024\353T\371\236~R\300`\220\364i\025\177R\300%\351\232\3117\177R\300\252F\257\006(\177R\300\323P\243\220d\177R\300h\"lxz\177R\300Cr2q\253}R\300\320a\276\274\000{R\300\345\320\"\333\371\177R\300M\206\343\371\014~R\300\234\242#\271\374}R\300qo~\303D~R\300\252\177\020\311\220\177R\300\000\000\000`d}R\300 \007%\314\264qR\300\221\017z6\253~R\300@l\351\321T\177R\300\000\000\000\300O\200R\300\"lxz\245\200R\300\253\261\204\2651\200R\300\273\321\307|@\177R\300/\301\251\017$}R\300\352\314=$|wR\300\347\035\247\350H}R\300K\311r\022J\177R\300G\310@\236]\177R\300\222\221\263\260\247\177R\300\233\341\006|~~R\300\202;P\247<\200R\300\000\000\000 9\177R\300\310\322\207.\250~R\300$?\342W\254~R\300\213\304\0045|~R\300\363\220)\037\202\177R\300\351\265\331X\211\177R\300T\246\230\203\240~R\300\022QL\336\000}R\300d\221&\336\001\200R\300\037H\3369\224|R\300[B>\350\331~R\300\302\213\276\2024}R\300OV\014W\007~R\300x\014\217\375,}R\300\000\000\000\000W~R\300\243\003\222\260o\177R\300w\365*2:~R\300\375\366u\340\234}R\3002!\346\222\252\177R\300\242\177\202\213\025~R\300\334\016\r\213Q\177R\300\366*2: \200R\300$?\342W\254\177R\300]\366\353Nw\177R\300C\307\016*q}R\300\354k]j\204|R\300f2\034\317gwR\300\313\326\372\"\241|R\3006\255\024\002\271\200R\300\261n\274;2~R\300\205{e\336\252~R\3005}v\300u\177R\300Cs\235FZ~R\300\302hV\266\017}R\300\301\350\362\346p\177R\300\000\000\000\240\310\177R\300\000\000\000@\207\177R\300\017\266\330\355\263\177R\300#\365\236\312i~R\300\320{c\010\000}R\300\016e\250\212\251\200R\300W\262c#\020|R\300\2341\314\t\332}R\300\000\000\000\000\265\200R\300\237\343\243\305\031~R\300\314E|\'frR\300.\375KR\231\177R\300\220\206S\346\346~R\300\034\225\233\250\245rR\300\272j\236#\362~R\300\337\337\240\275\372\177R\300RD\206U\274\177R\300\310[\256~l\200R\300\331\221\352;\277\177R\300\316qn\023\356~R\300\257\\o\233\251~R\300\n0,\177\276zR\300\363\250\370\277#\177R\300\005S\315\254\245~R\300\354L\241\363\032\200R\300\000\000\000`j\177R\300S\226!\216u\200R\300\234mnLOwR\300\007\227\2169\317\177R\300\214\276\2024c~R\300\353V\317I\357~R\300\036P6\345\n\177R\300*\253\351z\242~R\300\177\0214f\022\200R\300\025\345\322\370\205|R\300\305\246\225B |R\300\207\244\026J&\177R\3009\330\233\030\222|R\300K\256b\361\233~R\300@\246\265il}R\300\365i\025\375\241}R\300of\364\243\341\177R\300\231G\376`\340~R\300\323\025l#\236\177R\300\000\000\000`\360}R\300\312\370\367\031\027~R\300g\266+\364\301\177R\300\331\317b)\222\177R\300\242_[?\375}R\300\022\210\327\365\013}R\300\221\225_\006c\200R\300PoF\315W~R\300f\203L2r~R\300tHj\241d~R\300\272\327I}YtR\300\337\246?\373\221~R\300Re\030w\203\200R\300O\312\244\2066\200R\300\ne\341\353k}R\3000j\367\253\000\214R\300<\327\367\341 \177R\300\323\277$\225)~R\300\353u\213\300X\177R\300\265\377\001\326\252~R\300\000\000\000\200Z\200R\300\016\271\031n\300\177R\300\231G\376`\340~R\300\013$(~\214~R\300\335\233\3370\321}R\300\335C\302\367\376~R\300\367\310\346\252y\177R\300\000\033\020!\256\213R\300\235g\354K6~R\300B\232\261h:\177R\300\325\353\026\201\261\177R\300W@\241\236>\177R\300\223<\327\367\341\177R\300\211\230\022I\364}R\300\"\033H\027\233~R\300\001\246\014\034\320}R\300\000\000\000\240\035~R\300@Pn\333\367}R\300\322\303\320\352\344\177R\300\200\325\221#\235\177R\300\000\000\000\300e}R\300$\324\014\251\242~R\300\335\226\310\005g\177R\300\035\314&\300\260\177R\300\000\000\000 V~R\300/\214\364\242v}R\300\365\330\226\001g{R\300|C\341\263u\177R\300\270W\346\255\272~R\300=\322\340\266\266}R\300\202\344\235C\031~R\300\202\037\325\260\337}R\300\356\350\177\271\026\177R\300\334N[#\202~R\300\206\344d\342V~R\300\303\362\347\333\202\200R\300\241,|}\255\177R\300\202\340\361\355]~R\300\255\207/\023E}R\300\260w\177\274W\177R\300\311v\276\237\032\177R\300\367\003\036\030@\177R\300k\235\270\034\257qR\300\261\277\354\236<|R\300\210\237\377\036\274\177R\300\214\331\222U\021}R\300\332X\211yV}R\300\211~m\375\364\177R\300Y\375\021\206\001}R\300\326\2543\276/}R\300\276\022H\211]}R\300\260\000\246\014\034\177R\300}\310[\256~~R\300\000\000\000@\212\200R\300\362\270\250\026\021}R\300+\376\357\210\n~R\300\t5C\252(\177R\300\232E(\266\202\200R\300\357W\001\276\333\177R\300W\224\022\202U~R\300v\210\177\330\322\177R\300\364QF\\\000~R\300a\372^Cp\200R\300s\300\256&O\200R\300\307F ^\327~R\300qTn\242\226~R\300\000\000\000\240\355~R\300\031\034%\257\316~R\300h\225\231\322\372~R\300\254\034Zd;~R\300ds\325<GzR\300\3058\177\023\n\177R\300\322\3468\267\t~R\300\205\005\367\003\036\177R\300\316\374j\016\020\200R\300\265\277\263=z\200R\300\377!\375\366u\200R\300\000\000\000\340(\177R\300U3k) \177R\300\327L\276\331\346\177R\300\000\000\000\340\364~R\300\332 \223\214\234}R\300)\323hr1~R\3002\036\245\022\236\200R\300iT\340d\033}R\300\304?l\351\321tR\300(\237\036\3332~R\300x\227\213\370N}R\300O\004q\036N\200R\300*\343\337g\\~R\300O\222\256\231|wR\300\206\000\340\330\263~R\300\271\304\221\007\"\200R\300p_\007\316\031\177R\300\213\210b\362\006\177R\300k\200\322P\243~R\300\245.\031\307H\177R\300x\2337N\n|R\300h\345^`V\177R\300\250\3431\003\225~R\300\036\336s`9}R\300-\tPS\313\177R\300\3539\351}\343zR\300\"p$\320`~R\300\000\000\000\300N\200R\300d\351C\027\324~R\300\002\267\356\346\251}R\300\211\315\307\265\241\200R\300~\340*O ~R\3001\316\337\204B\177R\300 \322o_\007~R\300+l\006\270 }R\300\275\336\375\361^~R\300\202\032\276\205u\177R\300\241\372\007\221\014}R\300\347\375\177\2340\200R\300\305pu\000\304xR\300\2719\225\014\000\200R\300\332\306\237\250l~R\300\314\321\343\3676\200R\300\301\344F\221\265\177R\300\000\000\000 R|R\300\0260\201[w\177R\300\345a\241\3264\177R\300\337i2\343m~R\300\354k]j\204~R\3006S!\036\211~R\300\027C9\321\256}R\300E\330\360\364J|R\300/\210HM\273wR\300a\340\271\367p|R\300\235+J\t\301~R\300\346\256%\344\203}R\300\000\000\000\240&~R\300\311\345?\244\337}R\300M\241\363\032\273}R\300\351\230\363\214}\177R\300\205\n\016/\210\177R\300E\361*k\233~R\300\030~p>u\177R\300\245\277\227\302\203\200R\300K@L\302\205~R\300\243>\311\0356}R\300\332\220\177f\020\200R\300\2719\225\014\000\177R\300\000\000\000\340\377~R\300\354i\207\277&~R\300\236^)\313\020\177R\3008\244Q\201\223}R\300\200\240\334\266\357\177R\300pz\027\357\307}R\300v\340\234\021\245~R\300o~\303D\203\177R\300\211C6\220.\177R\300\201\0050e\340~R\300\027\325\"\242\230\177R\300HnM\272-~R\300\000\000\000\340.~R\300\251\334D-\315~R\300V-\351(\007rR\300 A\361c\314~R\300\336\034\256\325\036~R\300\216\351\tK<~R\300]\216W z\177R\300\272Qd\255\241|R\300A\3639w\273~R\300Q\205?\303\233\177R\300\201~\337\277y~R\300}t\352\312g~R\3002uWv\301oR\300\014:!t\320|R\300\236\'\236\263\005~R\300,\235\017\317\022\177R\300QO\037\201?~R\300K\006\200*n\200R\300G:\003#/|R\300\372\355\353\3009\177R\300\rW\007@\334|R\300\036\027\325\"\242\177R\300(\021\341_\004\201R\300\027+j0\r~R\300\032\027\016\204d~R\300\347\216\376\227k~R\300\321\003\037\203\025\200R\300\031\344.\302\024}R\3000\270\346\216\376~R\300L9_\354\275~R\300\000\000\000\3408\200R\300h\321;\025p~R\300\277\013[\263\225}R\300\232\231\231\231\231}R\300P\247<\272\021\200R\300\223o\266\2711~R\3006\260U\202\305~R\300\205\351{\r\301~R\300\373$w\330D\200R\300\273\270\215\006\360}R\300\242\232\222\254\303}R\300\241/\275\375\271\177R\300^\275\212\214\016\200R\3005$\356\261\364~R\300\354\245)\002\234\177R\300\336Y\273\355B\177R\300\203\371+d\256\177R\300oD\367\254k~R\300\000\000\000\340WwR\300\330\273?\336\253}R\300.\375KR\231\177R\300~\032\367\3467\177R\300L\375\274\251H\177R\300\003yv\371\326~R\300U2\000Tq\177R\300k\266\362\222\377~R\300\206\000\340\330\263}R\300{\240\025\030\262\177R\300#i7\372\230~R\300U3k) ~R\300\000\000\000\000@}R\300\340/fKV}R\300\016+\334\362\221}R\300\241M\016\237t\177R\300\225\177-\257\\\200R\300<\333\2437\334\177R\300DO\312\244\206~R\300R\2338\271\337~R\300\001jj\331Z\200R\300}`\307\177\201|R\300\000\000\000\000\311~R\300\247\352\036\331\\~R\300^i\031\251\367|R\300\016ND\277\266\177R\300\241\240\024\255\334}R\300\301\314w\360\023sR\300\271\244j\273\tzR\300@\374\374\367\340\177R\300To\rl\225~R\300\271\210\357\304\254\200R\3002\222=B\315~R\300\000\000\000\300Q~R\300\345\266}\217\372}R\300\000\000\000@\246}R\300\030^I\362\\}R\300F\360\277\225\354~R\300\316N\006G\311}R\300\267\317*3\245\177R\300\367=\352\257W~R\300\302\211\350\327\326~R\300B(\357\343h\177R\300\272\367p\311q\177R\300\260\2544)\005{R\300\024 \nfL\200R\300\370\210\230\022ItR\300\330d\215z\210\177R\300\000\000\000\340:\177R\300t}\037\016\022~R\300\000\000\000\240N\177R\300;r\24430~R\300\257\321r\240\207|R\300\020\225F\314\354\177R\300\030\007\227\2169~R\300O\224\204D\332~R\300\'l?\031\343\177R\300\260\2544)\005\201R\300&\251L1\007uR\300\374o%;6\177R\300\\\346tYLrR\300\031\036\373Y,}R\300\355,z\247\002{R\300\013\272\275\2441}R\300\376G\246C\247\200R\300\216\3473\240\336~R\300\312\372\315\304t}R\300i\337\334_=~R\300\000\000\000\2409\177R\300\261/\331x\260}R\300\202\344\235C\031~R\300[\257\351AA}R\300\362&\277E\'\200R\3004\016\365\273\260}R\300\334\235\265\333.~R\300\272\332\212\375e\177R\300DM\364\371(}R\300\300\223\026.\253}R\300\325!7\303\r~R\300\260u\251\021\372}R\300V}\256\266b\177R\300c\356ZB>|R\300\266Go\270\217\177R\3005\'/2\001\177R\300\222$\010W@\200R\300\340\023\353T\371\200R\300\001\212\221%s\177R\300\007\320\357\3737\177R\300\025\032\210e3\177R\300#d \317.\177R\300\017}w+K\200R\300\320\270p $~R\300\024D\335\007 ~R\300r\212\216\344\362~R\300\346\006C\035V\200R\300/\367\311Q\200\201R\300\375\366u\340\234}R\300)Z\271\027\230}R\300a\254o`r\177R\300\272\335\313}r\200R\300\3744\356\315o~R\300\214k|&\373~R\300\263>\345\230,}R\300?mT\247\003yR\300\337\250\025\246\357xR\300?\251\366\351x|R\300M,\360\025\335vR\300\344\204\t\243Y\177R\300\265o\356\257\036\177R\300\256\361\231\354\237~R\300\022\363\254\244\025\200R\300\210.\250o\231}R\300\377\223\277{G}R\300\320\261\203J\\~R\300\033\333kA\357~R\300\253{ds\325\177R\300\3536\250\375\326~R\300=Fy\346\345~R\300\204\362>\216\346}R\300\222\"2\254\342~R\300g\201v\207\024\177R\300D\374\303\226\036\177R\300p\231\323e1\200R\300\270w\r\372\322}R\300X\246_\"\336|R\300\253]\023\322\032\177R\300\027\020Z\017_~R\300\021n2\252\014\177R\300\036m\034\261\026{R\300\347\246\3158\r~R\300\000\000\000`O~R\300\302\300s\357\341\177R\300F%u\002\232~R\300\305\314>\217Q~R\300F\016\0217\247\177R\300\202Y\241H\367\177R\300\316\247\216UJ~R\300\343\336\374\206\211\177R\300~q\251J[|R\300\010\255\207/\023}R\300\023\236\320\353O\200R\300\271\374\207\364\333}R\3005&\304\\R\177R\300\217\373V\353\304|R\300\000\000\000\2001\200R\300\215\231D\275\340~R\300\307F ^\327~R\300\272\371Ft\317\200R\300R%\312\336R}R\3002t\354\240\022\177R\300\234\335Z&\303\177R\300\036\375/\327\242}R\300\243#\271\374\207~R\300yX\2505\315~R\300DR\013%\223~R\300g\357\214\266*~R\300\002\276\333\274q\177R\300\342w\323-;\177R\300;\255\333\240\366|R\300\316\252\317\325V~R\300\002`<\203\206~R\300m\0006 B~R\300oc\263#\325}R\300\315\313a\367\035\200R\300\353\340`ob\201R\300\031s\327\022\362}R\300\271\217\334\232t~R\3006\225Ea\027\177R\300\006\206\254n\365\177R\300\251j\202\250\373\177R\300\373\350\324\225\317|R\300\242(\320\'\362~R\300\237\005\241\274\217~R\300;\211\010\377\"~R\300\353\307&\371\021\177R\300\272\337\241(\320~R\300\212\034\"nN~R\300\212\347l\001\241~R\300>\007\226#d~R\300\325\321q5\262~R\300\237\315\252\317\325}R\300\303~O\254S\177R\300\376g\315\217\277|R\300\206Z\323\274\343~R\300\276\021\335\263\256qR\300\322\220\361(\225\177R\300\031\252b*\375\177R\300\000\000\000`\033|R\300\313\022\235e\026~R\300\216\351\tK<\177R\300\363\034\221\357R\177R\300\000\000\000`c\177R\300\245\367\215\257=\177R\300\201X6sH\177R\300\252\014\343n\020}R\300\254\377s\230/\200R\300 \nfL\301~R\300\270;k\267]~R\300\326\031\337\027\227~R\300\0219}=_|R\300/m8,\r}R\300\021\374o%;~R\300\032S\260\306\331~R\300\177\300\003\003\010\177R\300P\305\215[\314}R\300\217\034\351\014\214~R\300\262)Wx\227\177R\300\361I\'\022L~R\300?RD\206U|R\300\214\201u\034?~R\300\000\000\000`\'\177R\300\213\213\243r\023~R\300\314\321\343\3676\200R\300!\005O!W}R\300m=C8f}R\300\245,C\034\353~R\300\334\276G\375\365|R\300\336\377\307\t\023}R\300\227\001g)Y~R\300\364\300\307`\305~R\300\000\000\000\200\255~R\300\224\3640\264:\177R\300\244\375\017\260V|R\300\206\0361zn\200R\300!W\352Y\020}R\300\007@\334\325\253\177R\300\000\000\000\200\203~R\300\215\007[\354\366~R\300\367\344a\241\326\177R\300]6:\347\247~R\300!\313\202\211?~R\300R\014\220h\002\177R\300@Pn\333\367\177R\300U\274\221y\344~R\300\336\213/\332\343\177R\300\274?\336\253V\200R\300?\216\346\310\312sR\300h\353\340`o\200R\300p\262\r\334\201|R\300h\316\372\224c\177R\300\236\\S \263}R\300Z\016\364P\333~R\300T\246\230\203\240\200R\300$\265P29}R\300\356\314\004\303\271~R\300\364\377\252#G~R\300t\324\321q5\200R\300\301\307`\305\251\200R\300\301Z\265kB}R\300b\236\225\264\342~R\300\021p\010Uj~R\300\344+\201\224\330~R\300r\337j\235\270}R\300D\372\355\353\300}R\300\210k\265\207\275~R\300\324\322\334\na\177R\300\000\000\000\340\305~R\300!\037\364lV~R\300\345\321\215\260\250\177R\300\301T3k)vR\300V\331wE\360~R\3007\375\331\217\024\177R\300\270\222\035\033\201~R\300\005\374\032I\202\177R\300\366\016\267C\303~R\300F\007$a\337~R\300\000\376)U\242~R\300#k\r\245\366|R\300^\202S\037H\177R\300\356ZB>\350\177R\300.\031\307H\366~R\300\311uS\312k\200R\300\245d9\t\245\177R\3004\360\243\032\366~R\300+\274\313E|}R\300qS\003\315\347~R\300\256I\267%r\177R\300)#.\000\215~R\300B \2278\362|R\300\212\310\260\2127\177R\300;\335y\3429\177R\300\304wb\326\213\200R\300u[\"\027\234\177R\300\000\000\000 ~\177R\300d\227\250\336\032\200R\300\305\251\326\302,~R\300\204\363\251c\225~R\300\027}\005i\306~R\300\022I\3642\212\177R\300\271\374\207\364\333\177R\300\226>tA}~R\300:X\377\3470}R\300\342\314\257\346\000yR\300\'K\255\367\033yR\300\002\233s\360L\200R\300n\211\\p\006}R\300n2\252\014\343\177R\300\"\032\335A\354~R\300{\237\252B\003\200R\300\000=\r\030$~R\300\005\343\340\3221~R\300\2760\231*\030\177R\300\000\000\000@\206}R\300\000\000\000\000k~R\300\350e\024\313-\177R\300\320\230I\324\013~R\300\000\000\000\300\217\177R\3000\017\231\362!{R\300\265/\240\027\356rR\300\267\353\245)\002\200R\300\316\250\371*\371}R\300\000\000\000`\303\177R\300\361,AF@~R\300\246B<\022/\177R\300\345\020qs*yR\300e\2546\377\257yR\300G\035\035W#\177R\300\300\3533g}\177R\300|\3265Z\016\177R\300!\347\375\177\234}R\300\000\000\000\000:|R\300Sy;\302i\177R\300[}uU\240~R\300\347\303\263\004\031}R\300\354\305PN\264|R\3003k) \355~R\300\326\346\377UG~R\300\304%\307\235\322~R\300\200+\331\261\021\177R\300\305\215[\314\317|R\300\216Za\372^wR\300\000\000\000\200\205\177R\3008\331\006\356@~R\300\000\000\000\240`\200R\300^b,\323/~R\3003\277\232\003\004}R\300;\217\212\377;\177R\300\035\\:\346<}R\300}\316\335\256\227}R\300~\212\343\300\253~R\300ut\\\215\354~R\300\216x\262\233\031\200R\300\254\217\207\276\273|R\300\036\030@\370P\177R\300} y\347P\177R\300\2508\016\274Z\200R\300\007\\W\314\010\177R\300\000\000\000@3}R\300\000\000\000`\330{R\3006\253>W[\200R\300\r\214\274\254\211\200R\300q\003>?\214\177R\300Na\245\202\212\200R\300}\002(F\226\200R\300\000\000\000\300P\177R\300r\023\2654\267yR\300a\000\341C\211~R\300\203\025\247Z\013}R\300f\374\373\214\013~R\300\243\311\305\030X~R\300\177\276-X\252~R\300\000\000\000\300\005{R\300l\352<*\376\177R\300\336\256\227\246\010{R\300\325\3160\265\245~R\300#\205\262\360\365~R\300\264\037)\"\303|R\300P\215\227n\022\177R\300<\277(A\177|R\300\226#d \317~R\300L\302\205<\202}R\300\323\274\343\024\035~R\300C\307\016*q}R\300\211]\333\333-~R\300\202\216V\265\244\177R\300\023a\303\323+~R\300\020v\212U\203}R\300\305\036\332\307\n~R\300aL\372{)}R\300\350\363QF\\~R\300 \321\004\212X}R\300Rd\255\241\324~R\300\013\323\367\032\202\200R\300\301\377V\262c\200R\300rP\302L\333}R\300\327\332\373T\025|R\300\251\336\032\330*~R\300\342\317\360f\r~R\300.\344\021\334H~R\3004\272\203\330\231\200R\300\243Xni5~R\300\026\370\212n\275}R\300\262c#\020\257|R\300Y\210\016\201#}R\300A\326S\253\257\201R\300\331Y\364N\005\177R\300\311<\362\007\003~R\300&\0319\013{}R\300\223\032\332\000l~R\300\200\272\201\002\357}R\3001\356\006\321Z}R\3004\272\203\330\231\200R\300\275\035\341\264\340~R\300\312\276+\202\377|R\300\271\305\374\334\320~R\300\377\262{\362\260~R\300\207\341#bJ~R\300\233\222\254\303\321~R\300\343\253\035\3059~R\300\032\337\027\227\252~R\300b\025od\036\200R\300\267_>Y1}R\300R\'\240\211\260\177R\300\000\000\000`\030\177R\300\271\215\006\360\026\177R\300\000\000\000 